{
  "version": "1.0",
  "truncation": null,
  "padding": null,
  "added_tokens": [
    {
      "id": 0,
      "content": "<PAD>",
      "single_word": false,
      "lstrip": false,
      "rstrip": false,
      "normalized": false,
      "special": true
    },
    {
      "id": 1,
      "content": "<BOS>",
      "single_word": false,
      "lstrip": false,
      "rstrip": false,
      "normalized": false,
      "special": true
    },
    {
      "id": 2,
      "content": "<EOS>",
      "single_word": false,
      "lstrip": false,
      "rstrip": false,
      "normalized": false,
      "special": true
    },
    {
      "id": 3,
      "content": "<BOUNDARY>",
      "single_word": false,
      "lstrip": false,
      "rstrip": false,
      "normalized": false,
      "special": true
    }
  ],
  "normalizer": {
    "type": "NFKC"
  },
  "pre_tokenizer": {
    "type": "ByteLevel",
    "add_prefix_space": true,
    "trim_offsets": true,
    "use_regex": true
  },
  "post_processor": null,
  "decoder": {
    "type": "ByteLevel",
    "add_prefix_space": true,
    "trim_offsets": true,
    "use_regex": true
  },
  "model": {
    "type": "BPE",
    "dropout": null,
    "unk_token": "<PAD>",
    "continuing_subword_prefix": null,
    "end_of_word_suffix": null,
    "fuse_unk": false,
    "byte_fallback": false,
    "ignore_merges": false,
    "vocab": {
      "<PAD>": 0,
      "<BOS>": 1,
      "<EOS>": 2,
      "<BOUNDARY>": 3,
      "!": 4,
      "\"": 5,
      "'": 6,
      "(": 7,
      ")": 8,
      "*": 9,
      ",": 10,
      "-": 11,
      ".": 12,
      "0": 13,
      "1": 14,
      "2": 15,
      "3": 16,
      "4": 17,
      "5": 18,
      "6": 19,
      "7": 20,
      "8": 21,
      "9": 22,
      ":": 23,
      ";": 24,
      "?": 25,
      "A": 26,
      "B": 27,
      "C": 28,
      "D": 29,
      "E": 30,
      "F": 31,
      "G": 32,
      "H": 33,
      "I": 34,
      "J": 35,
      "K": 36,
      "L": 37,
      "M": 38,
      "N": 39,
      "O": 40,
      "P": 41,
      "Q": 42,
      "R": 43,
      "S": 44,
      "T": 45,
      "U": 46,
      "V": 47,
      "W": 48,
      "X": 49,
      "Y": 50,
      "]": 51,
      "`": 52,
      "a": 53,
      "b": 54,
      "c": 55,
      "d": 56,
      "e": 57,
      "f": 58,
      "g": 59,
      "h": 60,
      "i": 61,
      "j": 62,
      "k": 63,
      "l": 64,
      "m": 65,
      "n": 66,
      "o": 67,
      "p": 68,
      "q": 69,
      "r": 70,
      "s": 71,
      "t": 72,
      "u": 73,
      "v": 74,
      "w": 75,
      "x": 76,
      "y": 77,
      "z": 78,
      "~": 79,
      "Ġ": 80,
      "he": 81,
      "Ġt": 82,
      "Ġa": 83,
      "Ġs": 84,
      "Ġw": 85,
      "Ġthe": 86,
      "in": 87,
      "Ġh": 88,
      "ed": 89,
      "er": 90,
      "nd": 91,
      "ou": 92,
      "Ġb": 93,
      "Ġo": 94,
      "re": 95,
      "is": 96,
      "Ġf": 97,
      "Ġhe": 98,
      "Ġm": 99,
      "or": 100,
      "Ġc": 101,
      "at": 102,
      "ing": 103,
      "en": 104,
      "Ġand": 105,
      "Ġto": 106,
      "ar": 107,
      "Ġ\"": 108,
      "ll": 109,
      "on": 110,
      "Ġl": 111,
      "an": 112,
      "it": 113,
      "Ġd": 114,
      "as": 115,
      "Ġof": 116,
      "es": 117,
      "ad": 118,
      "Ġth": 119,
      "Ġn": 120,
      "ro": 121,
      "ld": 122,
      "Ġg": 123,
      "id": 124,
      "ĠT": 125,
      "Ġhis": 126,
      "Ġy": 127,
      "Ġp": 128,
      "gh": 129,
      "im": 130,
      "Ġin": 131,
      "ow": 132,
      "ĠS": 133,
      "Ġbe": 134,
      "Ġwas": 135,
      "Ġyou": 136,
      "ot": 137,
      "le": 138,
      "Ġher": 139,
      ".\"": 140,
      "ly": 141,
      "ĠI": 142,
      "Ġst": 143,
      "ĠH": 144,
      "ac": 145,
      "Ġsa": 146,
      "ter": 147,
      "Ġon": 148,
      "Ġas": 149,
      "Ġe": 150,
      "ve": 151,
      "Ġk": 152,
      "om": 153,
      "Ġhad": 154,
      "ri": 155,
      "ĠThe": 156,
      "ght": 157,
      "oo": 158,
      "Ġhim": 159,
      "st": 160,
      "Ġha": 161,
      ",\"": 162,
      "'s": 163,
      "ord": 164,
      "ir": 165,
      "her": 166,
      "ith": 167,
      "Ġit": 168,
      "Ġwith": 169,
      "se": 170,
      "et": 171,
      "ould": 172,
      "ut": 173,
      "ver": 174,
      "Ġ.": 175,
      "Ġu": 176,
      "ĠL": 177,
      "Ġthat": 178,
      "ra": 179,
      "Ġfor": 180,
      "Ġnot": 181,
      "Ġshe": 182,
      "ĠA": 183,
      "ay": 184,
      "Ġsaid": 185,
      "ce": 186,
      "Ġwh": 187,
      "ard": 188,
      "Ġsh": 189,
      "all": 190,
      "ill": 191,
      "ee": 192,
      "Ġre": 193,
      "ĠHe": 194,
      "ight": 195,
      "ur": 196,
      "ĠB": 197,
      "ĠJ": 198,
      "Ġat": 199,
      "am": 200,
      "ent": 201,
      "out": 202,
      "ak": 203,
      "ĠW": 204,
      "al": 205,
      "ĠR": 206,
      "il": 207,
      "Ġr": 208,
      "ĠM": 209,
      "ack": 210,
      "ell": 211,
      "if": 212,
      "and": 213,
      "Ġbut": 214,
      "rom": 215,
      "ood": 216,
      "Ġme": 217,
      "Ġbl": 218,
      "Ġis": 219,
      "ĠN": 220,
      "Ġkn": 221,
      "ĠD": 222,
      "ore": 223,
      "ain": 224,
      "ck": 225,
      "ast": 226,
      "ch": 227,
      "Ġan": 228,
      "Ġthem": 229,
      "ĠC": 230,
      "Ġso": 231,
      "Ġfrom": 232,
      "?\"": 233,
      "ere": 234,
      "ry": 235,
      "one": 236,
      "un": 237,
      "Ġhave": 238,
      "Ġmy": 239,
      "Ġle": 240,
      "Ġwould": 241,
      "hen": 242,
      "Ġthey": 243,
      "ound": 244,
      "Ġwere": 245,
      "Ġli": 246,
      "Ġdo": 247,
      "hed": 248,
      "Ġno": 249,
      "ther": 250,
      "ted": 251,
      "ked": 252,
      "Ġsw": 253,
      "ear": 254,
      "ind": 255,
      "ers": 256,
      "lf": 257,
      "ĠRo": 258,
      "Ġman": 259,
      "Ġar": 260,
      "ong": 261,
      "Ġcl": 262,
      "Ġch": 263,
      "Ġall": 264,
      "pp": 265,
      "ke": 266,
      "ome": 267,
      "You": 268,
      "Ġne": 269,
      "Ġyour": 270,
      "Ġgo": 271,
      "ide": 272,
      "qu": 273,
      "ate": 274,
      "ĠSer": 275,
      "ĠShe": 276,
      "ace": 277,
      "ather": 278,
      "ven": 279,
      "Ġse": 280,
      "Ġwill": 281,
      "Ġro": 282,
      "Ġsee": 283,
      "Ġout": 284,
      "Ġup": 285,
      "Ġcould": 286,
      "ran": 287,
      "ĠG": 288,
      "ark": 289,
      "ĠLord": 290,
      "ess": 291,
      "Ġbro": 292,
      "ge": 293,
      "yri": 294,
      "Ġloo": 295,
      "ĠJon": 296,
      "ust": 297,
      "Ġv": 298,
      "ann": 299,
      "ĠRob": 300,
      "ĠNed": 301,
      "Ġsp": 302,
      "own": 303,
      "el": 304,
      "Ġbo": 305,
      "Ġhand": 306,
      "ough": 307,
      "Ġback": 308,
      "Ġsm": 309,
      "Ġtheir": 310,
      "ĠK": 311,
      "ister": 312,
      "ant": 313,
      "Ġone": 314,
      "Ġde": 315,
      "ĠSt": 316,
      "ys": 317,
      "Ġtoo": 318,
      "led": 319,
      "The": 320,
      "Ġwhen": 321,
      "Ġbeen": 322,
      "th": 323,
      "Ġare": 324,
      "our": 325,
      "ake": 326,
      "ru": 327,
      "row": 328,
      "ion": 329,
      "ĠF": 330,
      "ss": 331,
      "est": 332,
      "Ġdid": 333,
      "gg": 334,
      "urn": 335,
      "Ġal": 336,
      "ered": 337,
      "Ġey": 338,
      "pt": 339,
      "Ġsu": 340,
      "Ġdown": 341,
      "Ġag": 342,
      "'t": 343,
      "Ġun": 344,
      "Ġlike": 345,
      "Ġwe": 346,
      "Ġif": 347,
      "ick": 348,
      "yrion": 349,
      "ought": 350,
      "au": 351,
      "Ġqu": 352,
      "ĠTyrion": 353,
      "Ġking": 354,
      "ice": 355,
      "Ġgre": 356,
      "ĠP": 357,
      "Ġthan": 358,
      "way": 359,
      "ert": 360,
      "ost": 361,
      "ame": 362,
      "Ġsc": 363,
      "Ġlord": 364,
      "Ġfl": 365,
      "Ġeyes": 366,
      "ĠO": 367,
      "Ġcom": 368,
      "ous": 369,
      "ime": 370,
      "ĠIt": 371,
      "lyn": 372,
      "Ġoff": 373,
      "ble": 374,
      "ĠE": 375,
      "ie": 376,
      "self": 377,
      "ist": 378,
      "to": 379,
      "Ġco": 380,
      "Ġpl": 381,
      "Ġwhat": 382,
      "ade": 383,
      "hat": 384,
      "Ġj": 385,
      "Ġor": 386,
      "Ġfather": 387,
      "ha": 388,
      "ath": 389,
      "ĠBran": 390,
      "Ġbrother": 391,
      "tle": 392,
      "Ġmen": 393,
      "ps": 394,
      "ft": 395,
      "Ġthis": 396,
      "Ġby": 397,
      "Ġthere": 398,
      "ans": 399,
      "Ġsl": 400,
      "dd": 401,
      "Ġtold": 402,
      "ull": 403,
      "Ġwho": 404,
      "een": 405,
      "Ġclo": 406,
      "oun": 407,
      "Ġhor": 408,
      "mb": 409,
      "Ġover": 410,
      "eep": 411,
      "Ġlong": 412,
      "ew": 413,
      "oth": 414,
      "Ġarm": 415,
      "ild": 416,
      "atelyn": 417,
      "ire": 418,
      "Ġknow": 419,
      "ĠCatelyn": 420,
      "Ġthr": 421,
      "Ġagain": 422,
      "ic": 423,
      "Ġsword": 424,
      "nder": 425,
      "orn": 426,
      "ave": 427,
      "ady": 428,
      "ĠLann": 429,
      "rya": 430,
      "Ġmore": 431,
      "any": 432,
      "ved": 433,
      "Ġonly": 434,
      "us": 435,
      "ĠHis": 436,
      "ĠStark": 437,
      "here": 438,
      "Ġface": 439,
      "Ġnow": 440,
      "art": 441,
      "ĠLannister": 442,
      "eet": 443,
      "are": 444,
      "ĠV": 445,
      "wn": 446,
      "Ġtw": 447,
      "Ġever": 448,
      "Ġri": 449,
      "ĠArya": 450,
      "Ġboy": 451,
      "Ġinto": 452,
      "Ġhead": 453,
      "ched": 454,
      "Ġmo": 455,
      "ling": 456,
      "pped": 457,
      "ansa": 458,
      "ĠDany": 459,
      "fore": 460,
      "Ġblood": 461,
      "ree": 462,
      "hing": 463,
      "Ġra": 464,
      "Ġlooked": 465,
      "ĠSansa": 466,
      "ĠKing": 467,
      "Ġhere": 468,
      "ile": 469,
      "ink": 470,
      "Ġwo": 471,
      "ag": 472,
      "Ġab": 473,
      "Ġwat": 474,
      "ĠRobb": 475,
      "ittle": 476,
      "Ġtime": 477,
      "Ġblack": 478,
      "ff": 479,
      "Ġbefore": 480,
      "rey": 481,
      "Ġsil": 482,
      "Ġlo": 483,
      "ite": 484,
      "Ġgr": 485,
      "Ġnever": 486,
      "ester": 487,
      "ive": 488,
      "ons": 489,
      "ds": 490,
      "Ġbr": 491,
      "ĠRobert": 492,
      "Ġother": 493,
      "av": 494,
      "Ġold": 495,
      "ren": 496,
      "Ġthought": 497,
      "Ġen": 498,
      "Ġho": 499,
      "Ġshould": 500,
      "Ġlook": 501,
      "Ġaf": 502,
      "Ġus": 503,
      "Ġac": 504,
      "Ġaway": 505,
      "ross": 506,
      "med": 507,
      "ĠYou": 508,
      "Ġmade": 509,
      "Ġday": 510,
      "Ġvo": 511,
      "Ġwell": 512,
      "ine": 513,
      "Ġsome": 514,
      "ears": 515,
      "other": 516,
      "Ġeven": 517,
      "aester": 518,
      "mon": 519,
      "urned": 520,
      "Ġthrough": 521,
      "ig": 522,
      "me": 523,
      "ul": 524,
      "Ġcan": 525,
      "ĠThey": 526,
      "Ġgl": 527,
      "Ġtook": 528,
      "Ġmust": 529,
      "Ġam": 530,
      "ened": 531,
      "Ġway": 532,
      "Ġword": 533,
      "Ġsay": 534,
      "Ġchild": 535,
      "'d": 536,
      "win": 537,
      "Ġwar": 538,
      "pe": 539,
      "go": 540,
      "Ġcame": 541,
      "Ġtr": 542,
      "Ġpo": 543,
      "eel": 544,
      "Ġbet": 545,
      "Ġsn": 546,
      "ies": 547,
      "Ġaround": 548,
      "Ġcall": 549,
      "Ġwhere": 550,
      "ream": 551,
      "Ġsaw": 552,
      "ass": 553,
      "ied": 554,
      "Ġfo": 555,
      "mand": 556,
      "um": 557,
      "irst": 558,
      "ife": 559,
      "inter": 560,
      "hal": 561,
      "Ġhas": 562,
      "Ġdra": 563,
      "ort": 564,
      "Ġstill": 565,
      "Ġvoice": 566,
      "Ġwant": 567,
      "ĠWhen": 568,
      "ward": 569,
      "Ġnight": 570,
      "'ll": 571,
      "igh": 572,
      "ron": 573,
      "Ġbre": 574,
      "ried": 575,
      "Ġhorse": 576,
      "uard": 577,
      "Ġknight": 578,
      "Ġcome": 579,
      "Ġson": 580,
      "Ġhel": 581,
      "sw": 582,
      "Ġany": 583,
      "ĠAnd": 584,
      "pl": 585,
      "Ġthen": 586,
      "hind": 587,
      "ped": 588,
      "Ġunder": 589,
      "end": 590,
      "Ġasked": 591,
      "Ġmu": 592,
      "Ġneed": 593,
      "Ġhow": 594,
      "ared": 595,
      "ne": 596,
      "ang": 597,
      "outh": 598,
      "Ġdead": 599,
      "Ġste": 600,
      "Ġhimself": 601,
      "Ġtake": 602,
      "able": 603,
      "Ġmight": 604,
      "ings": 605,
      "Ġlet": 606,
      "Ġleft": 607,
      "ned": 608,
      "Ġafter": 609,
      "ves": 610,
      "irl": 611,
      "Ġyet": 612,
      "Ġgods": 613,
      "ount": 614,
      "Ġabout": 615,
      "Ġdark": 616,
      "Ġbel": 617,
      "Ġwind": 618,
      "augh": 619,
      "Ġhard": 620,
      "ĠJor": 621,
      "bb": 622,
      "Ġheard": 623,
      "Ġred": 624,
      "Ġknew": 625,
      "Ġwor": 626,
      "Ġwom": 627,
      "ish": 628,
      "Ġbehind": 629,
      "!\"": 630,
      "ng": 631,
      "Ġfirst": 632,
      "Ġsk": 633,
      "Ġwent": 634,
      "ach": 635,
      "ĠJo": 636,
      "inger": 637,
      "Ġthink": 638,
      "Ġits": 639,
      "Ġtwo": 640,
      "Ġlast": 641,
      "ĠMaester": 642,
      "Ġgreat": 643,
      "Ġevery": 644,
      "ond": 645,
      "Ġgave": 646,
      "Ġgirl": 647,
      "ĠWinter": 648,
      "elt": 649,
      "Ġhands": 650,
      "Ġacross": 651,
      "Ġgold": 652,
      "Ġmake": 653,
      "fell": 654,
      "Ġown": 655,
      "Ġche": 656,
      "He": 657,
      "red": 658,
      "owed": 659,
      "Ġbeg": 660,
      "Ġhair": 661,
      "Ġgood": 662,
      "mer": 663,
      "Ġex": 664,
      "Ġhu": 665,
      "ure": 666,
      "Ġdoor": 667,
      "ĠWinterfell": 668,
      "Ġsle": 669,
      "ise": 670,
      "less": 671,
      "Ġrid": 672,
      "les": 673,
      "ĠHer": 674,
      "ah": 675,
      "ue": 676,
      "Ġtell": 677,
      "alk": 678,
      "ting": 679,
      "Ġwall": 680,
      "Ġpr": 681,
      "iled": 682,
      "Ġseemed": 683,
      "ĠJoff": 684,
      "ance": 685,
      "Ġlittle": 686,
      "Ġturned": 687,
      "Ġwa": 688,
      "rogo": 689,
      "ap": 690,
      "ingers": 691,
      "Ġben": 692,
      "rak": 693,
      "Ġcloak": 694,
      "My": 695,
      "Ġbes": 696,
      "ept": 697,
      "os": 698,
      "ĠTh": 699,
      "de": 700,
      "Ġcr": 701,
      "atter": 702,
      "ars": 703,
      "anc": 704,
      "Ġguard": 705,
      "Ġyears": 706,
      "Ġhalf": 707,
      "ĠDrogo": 708,
      "memb": 709,
      "Ġtru": 710,
      "Ġop": 711,
      "Ġfeet": 712,
      "Ġhear": 713,
      "gon": 714,
      "Ġwood": 715,
      "rong": 716,
      "Ġfound": 717,
      "Ġcommand": 718,
      "ĠJoffrey": 719,
      "ct": 720,
      "Ġfri": 721,
      "Ġfire": 722,
      "ĠTy": 723,
      "Ġenough": 724,
      "ale": 725,
      "ose": 726,
      "ince": 727,
      "Ġsister": 728,
      "leas": 729,
      "Ġbeside": 730,
      "isp": 731,
      "ĠIf": 732,
      "Ġcalled": 733,
      "til": 734,
      "Ġqueen": 735,
      "ses": 736,
      "Ġonce": 737,
      "Ġcon": 738,
      "Ġsmall": 739,
      "No": 740,
      "Ġcold": 741,
      "Ġagainst": 742,
      "ab": 743,
      "Ġpre": 744,
      "iser": 745,
      "enly": 746,
      "Ġhigh": 747,
      "ool": 748,
      "atch": 749,
      "Ġend": 750,
      "Ġmuch": 751,
      "side": 752,
      "Ġtak": 753,
      "Ġnor": 754,
      "iz": 755,
      "onor": 756,
      "Ġkeep": 757,
      "Ġour": 758,
      "hes": 759,
      "Ġright": 760,
      "men": 761,
      "ween": 762,
      "Ġuntil": 763,
      "Ġfingers": 764,
      "Ġgone": 765,
      "Ġwhite": 766,
      "Ġrememb": 767,
      "Ġser": 768,
      "Ġstood": 769,
      "aid": 770,
      "op": 771,
      "Ġfelt": 772,
      "ung": 773,
      "Ġtre": 774,
      "Ġyoung": 775,
      "Ġdon": 776,
      "Ġleg": 777,
      "It": 778,
      "eath": 779,
      "Ġfear": 780,
      "Ġpro": 781,
      "Ġwhile": 782,
      "ness": 783,
      "Ġpe": 784,
      "Ġstu": 785,
      "Ġkill": 786,
      "othrak": 787,
      "Ġwords": 788,
      "ty": 789,
      "ated": 790,
      "Ġlady": 791,
      "ĠDothrak": 792,
      "ield": 793,
      "Ġlight": 794,
      "Ġjust": 795,
      "Ġstone": 796,
      "Ġbetween": 797,
      "aughter": 798,
      "Ġwoman": 799,
      "sed": 800,
      "Ġmom": 801,
      "ning": 802,
      "Ġfar": 803,
      "Ġmoment": 804,
      "Ġput": 805,
      "Ġcar": 806,
      "Ġthree": 807,
      "Ġdone": 808,
      "ows": 809,
      "omet": 810,
      "ĠThere": 811,
      "Ġnothing": 812,
      "ĠAr": 813,
      "Ġreal": 814,
      "ĠMy": 815,
      "ho": 816,
      "Ġsent": 817,
      "Ġsteel": 818,
      "rand": 819,
      "ddard": 820,
      "get": 821,
      "ĠY": 822,
      "Ġplace": 823,
      "'re": 824,
      "Ġhonor": 825,
      "ĠMor": 826,
      "ĠEddard": 827,
      "very": 828,
      "ep": 829,
      "ving": 830,
      "Ġchildren": 831,
      "Ġbeneath": 832,
      "ouse": 833,
      "'m": 834,
      "ĠJorah": 835,
      "Ġfind": 836,
      "Ġdou": 837,
      "Ġgi": 838,
      "Ġarmor": 839,
      "ken": 840,
      "Ġlife": 841,
      "Ġherself": 842,
      "Ġseen": 843,
      "ised": 844,
      "aster": 845,
      "Ġ.\"": 846,
      "ook": 847,
      "Ġside": 848,
      "Ġrest": 849,
      "iver": 850,
      "ts": 851,
      "wo": 852,
      "What": 853,
      "air": 854,
      "ĠPy": 855,
      "Ġbu": 856,
      "Ġdre": 857,
      "ĠThat": 858,
      "finger": 859,
      "Ġsound": 860,
      "ity": 861,
      "Ġdeep": 862,
      "Ġwhisp": 863,
      "Ġroom": 864,
      "ways": 865,
      "Ġsilver": 866,
      "ĠMormon": 867,
      "Ġdis": 868,
      "ĠLittle": 869,
      "ĠHand": 870,
      "Ġret": 871,
      "ully": 872,
      "Ġsat": 873,
      "Ġbegan": 874,
      "And": 875,
      "age": 876,
      "ey": 877,
      "Ġmount": 878,
      "Ġcast": 879,
      "ĠJa": 880,
      "ĠMormont": 881,
      "ĠGre": 882,
      "Ġhold": 883,
      "ĠTywin": 884,
      "ĠLittlefinger": 885,
      "Ġbed": 886,
      "Ġcrow": 887,
      "imes": 888,
      "Ġsoft": 889,
      "haps": 890,
      "Ġsun": 891,
      "erhaps": 892,
      "ence": 893,
      "Ġunc": 894,
      "ĠDothraki": 895,
      "ĠArry": 896,
      "ment": 897,
      "ten": 898,
      "Ġkhal": 899,
      "ĠLady": 900,
      "Ġsweet": 901,
      "ĠArryn": 902,
      "Ġmouth": 903,
      "Ġpleas": 904,
      "Ġshall": 905,
      "Ġgrey": 906,
      "ertain": 907,
      "Ġwait": 908,
      "agg": 909,
      "ful": 910,
      "Ġheav": 911,
      "Ġhorses": 912,
      "Ġshout": 913,
      "ounc": 914,
      "Ġfe": 915,
      "Ġcur": 916,
      "ane": 917,
      "Ġprom": 918,
      "anding": 919,
      "ĠNo": 920,
      "We": 921,
      "ip": 922,
      "run": 923,
      "ĠWall": 924,
      "Ġwolf": 925,
      "Th": 926,
      "Ġim": 927,
      "Ġheart": 928,
      "Ġgrow": 929,
      "Ġsmile": 930,
      "Ġalways": 931,
      "Ġfoll": 932,
      "hy": 933,
      "rid": 934,
      "uwin": 935,
      "Ġsqu": 936,
      "Ġcut": 937,
      "ĠLuwin": 938,
      "Ġshad": 939,
      "ily": 940,
      "ower": 941,
      "Ġrem": 942,
      "Ġrode": 943,
      "ousand": 944,
      "ĠJaime": 945,
      "Ġfall": 946,
      "Ġname": 947,
      "Ġpull": 948,
      "Ġwater": 949,
      "sh": 950,
      "Ġthousand": 951,
      "ĠBar": 952,
      "Ġwine": 953,
      "Ġfight": 954,
      "Ġfeel": 955,
      "ĠLys": 956,
      "ally": 957,
      "iff": 958,
      "ious": 959,
      "te": 960,
      "ĠAll": 961,
      "Ġwalls": 962,
      "od": 963,
      "Ġpain": 964,
      "Ġswords": 965,
      "Ġtaken": 966,
      "Ġtra": 967,
      "Ġtalk": 968,
      "Ġsomet": 969,
      "ndred": 970,
      "Ġmar": 971,
      "Ġdire": 972,
      "cked": 973,
      "gar": 974,
      "most": 975,
      "gged": 976,
      "Ġhundred": 977,
      "Ġfell": 978,
      "Ġleave": 979,
      "Ġclose": 980,
      "Ġtow": 981,
      "ĠIn": 982,
      "Ġrun": 983,
      "Ġmany": 984,
      "ions": 985,
      "ks": 986,
      "Ġsur": 987,
      "Ġmother": 988,
      "Ġcour": 989,
      "arys": 990,
      "Ġdragon": 991,
      "ail": 992,
      "ol": 993,
      "oy": 994,
      "Ġlif": 995,
      "Ġansw": 996,
      "yrio": 997,
      "Ġsleep": 998,
      "oud": 999,
      "anted": 1000,
      "Ġstrong": 1001,
      "Ġride": 1002,
      "ged": 1003,
      "Ġru": 1004,
      "Ġgive": 1005,
      "rik": 1006,
      "aking": 1007,
      "Ġalmost": 1008,
      "Ġscream": 1009,
      "Ġsad": 1010,
      "Ġthose": 1011,
      "Ġpast": 1012,
      "ching": 1013,
      "aught": 1014,
      "Ġnorth": 1015,
      "head": 1016,
      "Ġthese": 1017,
      "Ġbat": 1018,
      "Ġfew": 1019,
      "Ġpass": 1020,
      "imb": 1021,
      "cell": 1022,
      "sword": 1023,
      "Ġir": 1024,
      "Ġlist": 1025,
      "tered": 1026,
      "If": 1027,
      "ier": 1028,
      "Ġmay": 1029,
      "Ġdream": 1030,
      "Ġthro": 1031,
      "raid": 1032,
      "Ġspe": 1033,
      "Ġcastle": 1034,
      "Ġget": 1035,
      "ray": 1036,
      "ĠKhal": 1037,
      "Ġlords": 1038,
      "Ġdoub": 1039,
      "az": 1040,
      "Ġwanted": 1041,
      "ĠBron": 1042,
      "ĠWatch": 1043,
      "Ġsoon": 1044,
      "ĠRod": 1045,
      "Ġbrought": 1046,
      "Ġskin": 1047,
      "Ġheavy": 1048,
      "Ġdirewo": 1049,
      "race": 1050,
      "wood": 1051,
      "Ġset": 1052,
      "ined": 1053,
      "Ġhur": 1054,
      "Ġcertain": 1055,
      "ĠTar": 1056,
      "Ġnew": 1057,
      "ĠLysa": 1058,
      "ĠRodrik": 1059,
      "host": 1060,
      "ms": 1061,
      "Ġtable": 1062,
      "Ġlow": 1063,
      "uth": 1064,
      "Ġran": 1065,
      "ĠCer": 1066,
      "Ġhelp": 1067,
      "iet": 1068,
      "Ġbann": 1069,
      "Ġthough": 1070,
      "Ġpart": 1071,
      "ĠWe": 1072,
      "astard": 1073,
      "Ġfriend": 1074,
      "ĠU": 1075,
      "Ġthick": 1076,
      "ĠSam": 1077,
      "Ġmoved": 1078,
      "Ġlove": 1079,
      "ĠBronn": 1080,
      "ald": 1081,
      "Ġtall": 1082,
      "Ġsouth": 1083,
      "Ġboth": 1084,
      "ished": 1085,
      "Ġeach": 1086,
      "sei": 1087,
      "Ġdoes": 1088,
      "Your": 1089,
      "Ġsec": 1090,
      "ssed": 1091,
      "Ġpoin": 1092,
      "Ġdes": 1093,
      "Ġdeath": 1094,
      "They": 1095,
      "ĠFor": 1096,
      "Ġscar": 1097,
      "ĠOn": 1098,
      "ĠVarys": 1099,
      "Ġtrue": 1100,
      "Ġtou": 1101,
      "Ġreac": 1102,
      "ĠWhat": 1103,
      "ains": 1104,
      "Ġsmiled": 1105,
      "Ġothers": 1106,
      "Ġtruth": 1107,
      "Ġpale": 1108,
      "thing": 1109,
      "Ġground": 1110,
      "fe": 1111,
      "Ġfin": 1112,
      "Ġfore": 1113,
      "Ġthing": 1114,
      "Ġhapp": 1115,
      "Ġleather": 1116,
      "Ġarms": 1117,
      "iserys": 1118,
      "ĠCersei": 1119,
      "ĠLannisters": 1120,
      "Ġriver": 1121,
      "Ġbreath": 1122,
      "Ġopen": 1123,
      "aw": 1124,
      "oke": 1125,
      "Ġcle": 1126,
      "Ġel": 1127,
      "Ġrepl": 1128,
      "Ġang": 1129,
      "Ġguards": 1130,
      "Ġless": 1131,
      "Ġdie": 1132,
      "Ġhall": 1133,
      "ĠMord": 1134,
      "Ġsudd": 1135,
      "Ġbring": 1136,
      "Ġlegs": 1137,
      "ering": 1138,
      "Ġfill": 1139,
      "Ġblade": 1140,
      "Ġblue": 1141,
      "Ġanother": 1142,
      "Ġpulled": 1143,
      "'ve": 1144,
      "Ġvery": 1145,
      "Ġapp": 1146,
      "ĠRenly": 1147,
      "ĠFather": 1148,
      "now": 1149,
      "Ġbastard": 1150,
      "ory": 1151,
      "Ġcu": 1152,
      "ank": 1153,
      "Ġnam": 1154,
      "Ġbell": 1155,
      "Ġgoing": 1156,
      "ĠViserys": 1157,
      "ĠKings": 1158,
      "Ġbetter": 1159,
      "Ġwhispered": 1160,
      "Ġdoubt": 1161,
      "lves": 1162,
      "mpt": 1163,
      "ove": 1164,
      "Ġbit": 1165,
      "Ġbir": 1166,
      "Ġlost": 1167,
      "ĠBl": 1168,
      "ĠGrey": 1169,
      "Ġalone": 1170,
      "ized": 1171,
      "Ġsomething": 1172,
      "den": 1173,
      "Ġtried": 1174,
      "Ġair": 1175,
      "Ġear": 1176,
      "ently": 1177,
      "Ġiron": 1178,
      "rist": 1179,
      "Ġcry": 1180,
      "Ġcare": 1181,
      "Ġstar": 1182,
      "Ġreplied": 1183,
      "Ġsig": 1184,
      "inc": 1185,
      "Ġfre": 1186,
      "ained": 1187,
      "Ġquick": 1188,
      "ĠEven": 1189,
      "Ġafraid": 1190,
      "gether": 1191,
      "Ġlifted": 1192,
      "arp": 1193,
      "Ġdied": 1194,
      "Ġthings": 1195,
      "ĠSe": 1196,
      "ĠAs": 1197,
      "Ġwhy": 1198,
      "Ġvis": 1199,
      "Ġbattle": 1200,
      "ghed": 1201,
      "night": 1202,
      "Ġmur": 1203,
      "Ġcross": 1204,
      "Ġmean": 1205,
      "Ġwatched": 1206,
      "Ġknights": 1207,
      "Ġthroat": 1208,
      "my": 1209,
      "ĠQ": 1210,
      "Ġwon": 1211,
      "Ġlau": 1212,
      "ands": 1213,
      "ĠOld": 1214,
      "ĠYet": 1215,
      "Ġreached": 1216,
      "Ġturn": 1217,
      "Ġbest": 1218,
      "Ġfour": 1219,
      "Ġtogether": 1220,
      "Ġgra": 1221,
      "ĠGrace": 1222,
      "Ġgreen": 1223,
      "Ġcover": 1224,
      "Ġbelie": 1225,
      "Ġlaughed": 1226,
      "Do": 1227,
      "Ġca": 1228,
      "Ġcounc": 1229,
      "ĠSept": 1230,
      "aces": 1231,
      "ĠNight": 1232,
      "Ġbrothers": 1233,
      "Ġwindow": 1234,
      "This": 1235,
      "Ġdirewolf": 1236,
      "dom": 1237,
      "mp": 1238,
      "Ġdro": 1239,
      "Ġdaughter": 1240,
      "amb": 1241,
      "Ġclimb": 1242,
      "anced": 1243,
      "Ġremembered": 1244,
      "Ġbru": 1245,
      "rie": 1246,
      "cl": 1247,
      "cted": 1248,
      "dm": 1249,
      "fully": 1250,
      "king": 1251,
      "oin": 1252,
      "Ġmaester": 1253,
      "Ġmatter": 1254,
      "Ġinst": 1255,
      "alked": 1256,
      "Ġquiet": 1257,
      "ĠPr": 1258,
      "aves": 1259,
      "Ġdays": 1260,
      "Ġsnow": 1261,
      "Ġfoot": 1262,
      "ches": 1263,
      "Ġrose": 1264,
      "dded": 1265,
      "celle": 1266,
      "be": 1267,
      "ser": 1268,
      "Ġdw": 1269,
      "ĠSnow": 1270,
      "ĠRiver": 1271,
      "Ġopened": 1272,
      "Ġmost": 1273,
      "Ġgot": 1274,
      "Ġstall": 1275,
      "Ġeas": 1276,
      "ĠWill": 1277,
      "ĠGhost": 1278,
      "There": 1279,
      "Ġwonder": 1280,
      "Ġunderst": 1281,
      "Ġchest": 1282,
      "ĠPycelle": 1283,
      "ix": 1284,
      "Ġfull": 1285,
      "ors": 1286,
      "arf": 1287,
      "Ġlay": 1288,
      "Ġdri": 1289,
      "range": 1290,
      "bbed": 1291,
      "Ġfright": 1292,
      "Ġuncle": 1293,
      "Ġfur": 1294,
      "Ġfool": 1295,
      "Ġheld": 1296,
      "Ġthre": 1297,
      "Ġrec": 1298,
      "amp": 1299,
      "Ġsend": 1300,
      "ĠYour": 1301,
      "Ġspeak": 1302,
      "Ġhun": 1303,
      "isted": 1304,
      "Ġled": 1305,
      "Ġsafe": 1306,
      "Ġwithout": 1307,
      "ĠLanding": 1308,
      "Ġforg": 1309,
      "Ġflo": 1310,
      "ĠRiverrun": 1311,
      "Lord": 1312,
      "yond": 1313,
      "ashed": 1314,
      "Ġnear": 1315,
      "Ġgall": 1316,
      "Ġbeyond": 1317,
      "aced": 1318,
      "ift": 1319,
      "ĠCom": 1320,
      "Ġalong": 1321,
      "Ġbreast": 1322,
      "ĠJory": 1323,
      "Ġworld": 1324,
      "As": 1325,
      "That": 1326,
      "ins": 1327,
      "Ġcaught": 1328,
      "Ġkind": 1329,
      "Ġhelm": 1330,
      "ones": 1331,
      "ĠTo": 1332,
      "Ġsto": 1333,
      "Ġsame": 1334,
      "Ġkept": 1335,
      "ĠAe": 1336,
      "Ġsharp": 1337,
      "Ġres": 1338,
      "Ġsept": 1339,
      "orning": 1340,
      "Ġshoulder": 1341,
      "zen": 1342,
      "Ġyard": 1343,
      "annis": 1344,
      "Ġsmell": 1345,
      "mbled": 1346,
      "Ġgolden": 1347,
      "ĠThis": 1348,
      "Ġdwarf": 1349,
      "Yes": 1350,
      "gor": 1351,
      "Ġinside": 1352,
      "iling": 1353,
      "Ġroad": 1354,
      "ĠStannis": 1355,
      "Ġsupp": 1356,
      "Ġgiven": 1357,
      "Ġcourt": 1358,
      "cher": 1359,
      "Ġsit": 1360,
      "Ġhome": 1361,
      "Ġmet": 1362,
      "Ġstra": 1363,
      "aked": 1364,
      "ounded": 1365,
      "hale": 1366,
      "Ġslow": 1367,
      "Ġmoon": 1368,
      "Ġwarm": 1369,
      "Ġshadow": 1370,
      "Ġcouncil": 1371,
      "joy": 1372,
      "man": 1373,
      "old": 1374,
      "Ġter": 1375,
      "Ġburn": 1376,
      "Ġcity": 1377,
      "cely": 1378,
      "ured": 1379,
      "Ġcho": 1380,
      "ushed": 1381,
      "Ġsky": 1382,
      "Ġwore": 1383,
      "erys": 1384,
      "ash": 1385,
      "ired": 1386,
      "ĠBen": 1387,
      "ĠMo": 1388,
      "Ġgrass": 1389,
      "ying": 1390,
      "yen": 1391,
      "Ġwear": 1392,
      "Ġmorning": 1393,
      "Ġcra": 1394,
      "Ġins": 1395,
      "Ġbec": 1396,
      "Ġforward": 1397,
      "yrie": 1398,
      "Ġbod": 1399,
      "hae": 1400,
      "Ġbelow": 1401,
      "Ġtruly": 1402,
      "garyen": 1403,
      "Ġtower": 1404,
      "Ġlisten": 1405,
      "ĠTargaryen": 1406,
      "Ġwalk": 1407,
      "ndered": 1408,
      "Ġbar": 1409,
      "Ġmil": 1410,
      "Ġcre": 1411,
      "Ġtoward": 1412,
      "llyrio": 1413,
      "ither": 1414,
      "Ġdist": 1415,
      "Ġrang": 1416,
      "Ġkings": 1417,
      "ĠEyrie": 1418,
      "yn": 1419,
      "Ġtry": 1420,
      "Ġhot": 1421,
      "Ġhung": 1422,
      "ĠHouse": 1423,
      "Ġsays": 1424,
      "Ġask": 1425,
      "Ġempt": 1426,
      "ĠThen": 1427,
      "Ġknown": 1428,
      "Ġsteps": 1429,
      "Ġletter": 1430,
      "Ġimp": 1431,
      "odor": 1432,
      "doms": 1433,
      "Ġsell": 1434,
      "Ġwild": 1435,
      "ret": 1436,
      "iss": 1437,
      "Ġfat": 1438,
      "Ġfree": 1439,
      "ĠSo": 1440,
      "Ġcomp": 1441,
      "Ġclosed": 1442,
      "Ġhope": 1443,
      "Ġlooking": 1444,
      "ummer": 1445,
      "Ġfollowed": 1446,
      "ĠMordane": 1447,
      "dle": 1448,
      "Ġfast": 1449,
      "ats": 1450,
      "ater": 1451,
      "Ġdagg": 1452,
      "esh": 1453,
      "ĠIllyrio": 1454,
      "ĠRick": 1455,
      "Ġbroken": 1456,
      "ants": 1457,
      "Ġsum": 1458,
      "Ġsure": 1459,
      "Ġsuch": 1460,
      "Ġthrone": 1461,
      "ristan": 1462,
      "She": 1463,
      "fter": 1464,
      "Ġtent": 1465,
      "Ġlaugh": 1466,
      "Ġper": 1467,
      "Ġlear": 1468,
      "els": 1469,
      "icked": 1470,
      "Ġcoming": 1471,
      "Ġamong": 1472,
      "Ġriding": 1473,
      "Ġcloaks": 1474,
      "Ġcommanded": 1475,
      "Ġtrees": 1476,
      "Ġrealm": 1477,
      "ĠBarristan": 1478,
      "Ġhurt": 1479,
      "Ġsecond": 1480,
      "ĠBlack": 1481,
      "ĠSeven": 1482,
      "Ġcovered": 1483,
      "hi": 1484,
      "rink": 1485,
      "uch": 1486,
      "Ġtears": 1487,
      "Ġdiff": 1488,
      "ĠTheon": 1489,
      "Ġraven": 1490,
      "Ġserv": 1491,
      "Ġfilled": 1492,
      "ĠSepta": 1493,
      "Is": 1494,
      "Why": 1495,
      "gs": 1496,
      "Ġtri": 1497,
      "Ġtimes": 1498,
      "Ġwhe": 1499,
      "Ġwin": 1500,
      "Ġwed": 1501,
      "Ġcru": 1502,
      "athe": 1503,
      "Ġpu": 1504,
      "aste": 1505,
      "Ġseem": 1506,
      "Ġflesh": 1507,
      "Ġslid": 1508,
      "Ġremember": 1509,
      "Ġpromised": 1510,
      "-\"": 1511,
      "aut": 1512,
      "Ġstru": 1513,
      "Ġatt": 1514,
      "ĠMen": 1515,
      "Ġmeat": 1516,
      "ounted": 1517,
      "Ġabove": 1518,
      "Ġreturn": 1519,
      "Ġbelieve": 1520,
      "Ġdagger": 1521,
      "How": 1522,
      "ci": 1523,
      "Ġaw": 1524,
      "Ġwrong": 1525,
      "Ġbig": 1526,
      "Ġthir": 1527,
      "Ġbeard": 1528,
      "akes": 1529,
      "ĠDo": 1530,
      "ĠOne": 1531,
      "Ġglanced": 1532,
      "mander": 1533,
      "ople": 1534,
      "ĠGreat": 1535,
      "ĠGregor": 1536,
      "Ġstallion": 1537,
      "awn": 1538,
      "Ġed": 1539,
      "Ġtight": 1540,
      "Ġsons": 1541,
      "Ġloud": 1542,
      "Ġshield": 1543,
      "acked": 1544,
      "Ġseat": 1545,
      "ourne": 1546,
      "Ġwaiting": 1547,
      "Ġshouted": 1548,
      "Ġelse": 1549,
      "ĠGreyjoy": 1550,
      "incess": 1551,
      "ĠCommander": 1552,
      "Ġteet": 1553,
      "Ġwalked": 1554,
      "ation": 1555,
      "Ġlar": 1556,
      "esi": 1557,
      "Ġperhaps": 1558,
      "ots": 1559,
      "Ġstor": 1560,
      "pping": 1561,
      "Ġprince": 1562,
      "Ġwooden": 1563,
      "alder": 1564,
      "haleesi": 1565,
      "Ġempty": 1566,
      "Ġdiffer": 1567,
      "Ġteeth": 1568,
      "Oh": 1569,
      "der": 1570,
      "ze": 1571,
      "Ġte": 1572,
      "Ġbare": 1573,
      "Ġfield": 1574,
      "Ġinn": 1575,
      "Ġbeaut": 1576,
      "Ġlean": 1577,
      "Ġrock": 1578,
      "Ġwondered": 1579,
      "ront": 1580,
      "ourney": 1581,
      "apped": 1582,
      "gth": 1583,
      "per": 1584,
      "Ġwife": 1585,
      "Ġhus": 1586,
      "inging": 1587,
      "road": 1588,
      "vel": 1589,
      "ety": 1590,
      "als": 1591,
      "ĠRed": 1592,
      "Ġmeant": 1593,
      "Ġnodded": 1594,
      "Ġsea": 1595,
      "Ġraised": 1596,
      "Ġwatch": 1597,
      "Ġunderstand": 1598,
      "lt": 1599,
      "Ġbow": 1600,
      "Ġbab": 1601,
      "its": 1602,
      "Ġstew": 1603,
      "ĠBut": 1604,
      "ĠNe": 1605,
      "ĠGrand": 1606,
      "ĠKingdoms": 1607,
      "Ġloved": 1608,
      "Ġchee": 1609,
      "Ġkilled": 1610,
      "ĠPyp": 1611,
      "Ġplease": 1612,
      "Ġfighting": 1613,
      "Ġbanner": 1614,
      "Ġscarcely": 1615,
      "Ġfrightened": 1616,
      "Ser": 1617,
      "but": 1618,
      "guard": 1619,
      "lord": 1620,
      "yal": 1621,
      "Ġsince": 1622,
      "Ġbri": 1623,
      "arrow": 1624,
      "ĠTom": 1625,
      "ĠHow": 1626,
      "Ġeat": 1627,
      "omed": 1628,
      "enty": 1629,
      "iful": 1630,
      "Ġneck": 1631,
      "Ġyours": 1632,
      "Ġeye": 1633,
      "Ġgrew": 1634,
      "ices": 1635,
      "ĠVa": 1636,
      "Ġacc": 1637,
      "Ġstepped": 1638,
      "Ġhuge": 1639,
      "Ġgrown": 1640,
      "Ġtouched": 1641,
      "bs": 1642,
      "og": 1643,
      "Ġes": 1644,
      "Ġbra": 1645,
      "Ġburned": 1646,
      "Ġfrow": 1647,
      "ense": 1648,
      "Ġthin": 1649,
      "Ġnarrow": 1650,
      "leg": 1651,
      "ets": 1652,
      "ĠMir": 1653,
      "ause": 1654,
      "Ġtrou": 1655,
      "Ġconf": 1656,
      "Ġdrew": 1657,
      "ĠAlliser": 1658,
      "ĠPrince": 1659,
      "ike": 1660,
      "umb": 1661,
      "Ġsight": 1662,
      "Ġwish": 1663,
      "Ġhost": 1664,
      "orrow": 1665,
      "Ġdam": 1666,
      "aded": 1667,
      "Ġstay": 1668,
      "Ġstand": 1669,
      "Ġref": 1670,
      "Ġplay": 1671,
      "Ġwomen": 1672,
      "Ġpeople": 1673,
      "ĠBarathe": 1674,
      "Ġanswer": 1675,
      "Ġstopped": 1676,
      "day": 1677,
      "kes": 1678,
      "ls": 1679,
      "ping": 1680,
      "xt": 1681,
      "Ġsong": 1682,
      "Ġbad": 1683,
      "ison": 1684,
      "Ġmer": 1685,
      "ĠSome": 1686,
      "ĠBy": 1687,
      "Ġoutside": 1688,
      "hagg": 1689,
      "ush": 1690,
      "Ġsilence": 1691,
      "attered": 1692,
      "tect": 1693,
      "Ġhusb": 1694,
      "ĠBaratheon": 1695,
      "fort": 1696,
      "where": 1697,
      "xe": 1698,
      "Ġfle": 1699,
      "Ġcor": 1700,
      "ony": 1701,
      "Ġbear": 1702,
      "ĠHound": 1703,
      "Ġaside": 1704,
      "Ġuse": 1705,
      "Ġshort": 1706,
      "ĠWhy": 1707,
      "Ġspoke": 1708,
      "Ġdec": 1709,
      "Ġdarkness": 1710,
      "Ġpromise": 1711,
      "Ġcapt": 1712,
      "ĠAemon": 1713,
      "Ġbody": 1714,
      "ĠMirri": 1715,
      "ple": 1716,
      "well": 1717,
      "Ġfaces": 1718,
      "Ġcann": 1719,
      "ens": 1720,
      "Ġlaughter": 1721,
      "ading": 1722,
      "ĠAt": 1723,
      "ĠMar": 1724,
      "Ġupon": 1725,
      "Ġboys": 1726,
      "Ġcol": 1727,
      "ĠVale": 1728,
      "ign": 1729,
      "Ġrealized": 1730,
      "Ġanswered": 1731,
      "Ġforest": 1732,
      "Ġvisit": 1733,
      "Ġfloor": 1734,
      "Ġmilk": 1735,
      "Ġcannot": 1736,
      "fast": 1737,
      "jen": 1738,
      "Ġwound": 1739,
      "reed": 1740,
      "Ġfront": 1741,
      "rot": 1742,
      "Ġgar": 1743,
      "ĠTower": 1744,
      "Ġpray": 1745,
      "act": 1746,
      "oose": 1747,
      "ilt": 1748,
      "ĠCleg": 1749,
      "Ġdoing": 1750,
      "ĠRock": 1751,
      "Ġdef": 1752,
      "Ġdidn": 1753,
      "Ġago": 1754,
      "Ġcloser": 1755,
      "Ġsilk": 1756,
      "pect": 1757,
      "Ġanything": 1758,
      "Ġstep": 1759,
      "Ġscreamed": 1760,
      "Ġhusband": 1761,
      "ĠClegane": 1762,
      "ipped": 1763,
      "Ġtor": 1764,
      "Ġsick": 1765,
      "Ġhour": 1766,
      "Ġfly": 1767,
      "Ġma": 1768,
      "Ġmut": 1769,
      "Ġpri": 1770,
      "Ġstro": 1771,
      "Ġstrange": 1772,
      "Ġur": 1773,
      "ĠAn": 1774,
      "ĠAfter": 1775,
      "ĠBry": 1776,
      "ĠWh": 1777,
      "ĠRhae": 1778,
      "ĠMother": 1779,
      "Ġknife": 1780,
      "Ġdozen": 1781,
      "Ġarrow": 1782,
      "Ġbroke": 1783,
      "Ġquest": 1784,
      "Ġjoin": 1785,
      "iced": 1786,
      "ĠStarks": 1787,
      "Ġgrin": 1788,
      "Ġolder": 1789,
      "renn": 1790,
      "Ġene": 1791,
      "Ġdrag": 1792,
      "Ġkhalas": 1793,
      "Ġcup": 1794,
      "Ġnamed": 1795,
      "ĠRickon": 1796,
      "how": 1797,
      "Ġhar": 1798,
      "ored": 1799,
      "Ġris": 1800,
      "Ġblind": 1801,
      "ĠDra": 1802,
      "Ġbrown": 1803,
      "Ġsilent": 1804,
      "Ġcarried": 1805,
      "ĠBenjen": 1806,
      "light": 1807,
      "Ġought": 1808,
      "Ġtu": 1809,
      "Ġahead": 1810,
      "Ġhouse": 1811,
      "nden": 1812,
      "ates": 1813,
      "ason": 1814,
      "Ġbeing": 1815,
      "ĠHodor": 1816,
      "Ġeun": 1817,
      "ĠBe": 1818,
      "ĠNow": 1819,
      "ĠDu": 1820,
      "cking": 1821,
      "Ġnext": 1822,
      "Ġseven": 1823,
      "Ġseated": 1824,
      "ĠGrenn": 1825,
      "Ġscra": 1826,
      "Ġlongsword": 1827,
      "Ġshoulders": 1828,
      "Ġgirls": 1829,
      "Ġremind": 1830,
      "Ġpointed": 1831,
      "Ġsudden": 1832,
      "Ġsuddenly": 1833,
      "ĠKingsguard": 1834,
      "Ġbrus": 1835,
      "Ġterri": 1836,
      "Ġkingsroad": 1837,
      "Ġeunuch": 1838,
      "ael": 1839,
      "Ġsix": 1840,
      "Ġwr": 1841,
      "Ġbowed": 1842,
      "Ġcorn": 1843,
      "Ġlad": 1844,
      "Ġlaid": 1845,
      "Ġstart": 1846,
      "ĠHigh": 1847,
      "Ġonto": 1848,
      "Ġegg": 1849,
      "Ġears": 1850,
      "Ġshru": 1851,
      "ĠBael": 1852,
      "Ġknee": 1853,
      "Ġlie": 1854,
      "ĠOther": 1855,
      "Ġsomeone": 1856,
      "Ġsaying": 1857,
      "Ġhelped": 1858,
      "ments": 1859,
      "Ġshadows": 1860,
      "Ġbanners": 1861,
      "ĠQu": 1862,
      "Go": 1863,
      "cle": 1864,
      "eat": 1865,
      "igg": 1866,
      "Ġtree": 1867,
      "Ġwet": 1868,
      "ready": 1869,
      "atched": 1870,
      "llen": 1871,
      "Ġland": 1872,
      "Ġyear": 1873,
      "owers": 1874,
      "ĠMaz": 1875,
      "aint": 1876,
      "Ġliked": 1877,
      "Ġswear": 1878,
      "Ġyourself": 1879,
      "atever": 1880,
      "ĠPerhaps": 1881,
      "Ġtwenty": 1882,
      "rength": 1883,
      "randon": 1884,
      "Ġrunning": 1885,
      "Ġedge": 1886,
      "Ġesc": 1887,
      "ĠBrynden": 1888,
      "ĠDuur": 1889,
      "ded": 1890,
      "sp": 1891,
      "Ġborn": 1892,
      "Ġmind": 1893,
      "Ġmist": 1894,
      "Ġgrie": 1895,
      "ĠTully": 1896,
      "Ġstick": 1897,
      "Ġcloth": 1898,
      "Ġwatching": 1899,
      "asterly": 1900,
      "Ġkhalasar": 1901,
      "ĠDragon": 1902,
      "aim": 1903,
      "of": 1904,
      "sha": 1905,
      "Ġtaste": 1906,
      "Ġfier": 1907,
      "Ġmaster": 1908,
      "Ġcons": 1909,
      "Ġlate": 1910,
      "itted": 1911,
      "ase": 1912,
      "Ġga": 1913,
      "Ġint": 1914,
      "ĠSummer": 1915,
      "ĠShagg": 1916,
      "Ġstream": 1917,
      "Ġsho": 1918,
      "Ġshook": 1919,
      "Ġrep": 1920,
      "Ġweak": 1921,
      "Ġcommon": 1922,
      "ages": 1923,
      "Ġvoices": 1924,
      "Ġtrust": 1925,
      "ables": 1926,
      "ĠMyr": 1927,
      "Ġreturned": 1928,
      "Ġsaddle": 1929,
      "Ġsighed": 1930,
      "Ġsellsword": 1931,
      "Ġdifferent": 1932,
      "etyr": 1933,
      "ead": 1934,
      "the": 1935,
      "Ġwest": 1936,
      "ening": 1937,
      "Ġdir": 1938,
      "Ġoften": 1939,
      "Ġpie": 1940,
      "ĠSw": 1941,
      "Ġstanding": 1942,
      "Ġstrength": 1943,
      "ters": 1944,
      "ries": 1945,
      "ĠBrandon": 1946,
      "ĠNan": 1947,
      "cho": 1948,
      "ĠCasterly": 1949,
      "Ġlips": 1950,
      "Ġroll": 1951,
      "Ġalready": 1952,
      "orne": 1953,
      "used": 1954,
      "Ġwork": 1955,
      "Ġyounger": 1956,
      "Ġsoftly": 1957,
      "Ġsquire": 1958,
      "Ġearth": 1959,
      "Ġthrew": 1960,
      "Ġchoice": 1961,
      "Ġsteward": 1962,
      "So": 1963,
      "ever": 1964,
      "for": 1965,
      "Ġage": 1966,
      "Ġadm": 1967,
      "ities": 1968,
      "ides": 1969,
      "Ġpur": 1970,
      "owing": 1971,
      "ott": 1972,
      "ardis": 1973,
      "Ġsweat": 1974,
      "ĠKeep": 1975,
      "ĠFrey": 1976,
      "mbling": 1977,
      "ĠVardis": 1978,
      "Ġmove": 1979,
      "Ġriders": 1980,
      "Ġstarted": 1981,
      "When": 1982,
      "iv": 1983,
      "ring": 1984,
      "Ġtong": 1985,
      "Ġlater": 1986,
      "idden": 1987,
      "Ġpay": 1988,
      "ĠIs": 1989,
      "Ġfort": 1990,
      "ĠBear": 1991,
      "Ġleast": 1992,
      "ĠRoy": 1993,
      "Ġalive": 1994,
      "ĠPetyr": 1995,
      "Ġbloodrid": 1996,
      "Ġused": 1997,
      "Ġfriends": 1998,
      "ĠOnly": 1999,
      "Ġforgot": 2000,
      "Ġbeautiful": 2001,
      "Ġdragons": 2002,
      "ev": 2003,
      "rri": 2004,
      "Ġaxe": 2005,
      "ining": 2006,
      "Ġmass": 2007,
      "Ġcou": 2008,
      "ary": 2009,
      "Ġdel": 2010,
      "Ġdrink": 2011,
      "Ġgently": 2012,
      "ided": 2013,
      "ĠSyrio": 2014,
      "ĠTheir": 2015,
      "Ġforth": 2016,
      "Ġrel": 2017,
      "Ġlive": 2018,
      "ĠFirst": 2019,
      "ously": 2020,
      "ump": 2021,
      "Ġpret": 2022,
      "Ġfeast": 2023,
      "rident": 2024,
      "Ġpassed": 2025,
      "Ġanger": 2026,
      "Ġthird": 2027,
      "bl": 2028,
      "ced": 2029,
      "Ġice": 2030,
      "ery": 2031,
      "Ġcell": 2032,
      "Ġgro": 2033,
      "ĠTrident": 2034,
      "ĠHar": 2035,
      "qui": 2036,
      "Ġsmiling": 2037,
      "Ġagreed": 2038,
      "Ġquite": 2039,
      "Ġflat": 2040,
      "Ġworse": 2041,
      "Ġwoods": 2042,
      "ize": 2043,
      "Ġpeace": 2044,
      "iously": 2045,
      "Ġbelly": 2046,
      "Ġclimbed": 2047,
      "Ġinstant": 2048,
      "Ġmetal": 2049,
      "Ġlarge": 2050,
      "ĠRoyce": 2051,
      "Ġap": 2052,
      "Ġsear": 2053,
      "ern": 2054,
      "Ġbur": 2055,
      "Ġmess": 2056,
      "Ġtop": 2057,
      "Ġdry": 2058,
      "Ġgu": 2059,
      "Ġyes": 2060,
      "Ġpushed": 2061,
      "ĠSh": 2062,
      "othes": 2063,
      "Ġforget": 2064,
      "ĠWind": 2065,
      "ĠWalder": 2066,
      "unt": 2067,
      "Ġchain": 2068,
      "ggled": 2069,
      "Ġcomes": 2070,
      "Ġheads": 2071,
      "Ġcarry": 2072,
      "Ġdouble": 2073,
      "ounced": 2074,
      "ĠUn": 2075,
      "Ġtouch": 2076,
      "Ġhappened": 2077,
      "Ġbird": 2078,
      "dmure": 2079,
      "Ġtrying": 2080,
      "ĠRhaegar": 2081,
      "cent": 2082,
      "maid": 2083,
      "pid": 2084,
      "sit": 2085,
      "Ġwag": 2086,
      "Ġble": 2087,
      "Ġmus": 2088,
      "Ġmail": 2089,
      "Ġcount": 2090,
      "arms": 2091,
      "ested": 2092,
      "iders": 2093,
      "Ġemb": 2094,
      "selves": 2095,
      "arden": 2096,
      "Ġsol": 2097,
      "Ġchamb": 2098,
      "rang": 2099,
      "Ġcoll": 2100,
      "Ġlonger": 2101,
      "aving": 2102,
      "lease": 2103,
      "Ġbuild": 2104,
      "eyne": 2105,
      "Ġmountain": 2106,
      "Ġtalking": 2107,
      "Ġangry": 2108,
      "Ġfresh": 2109,
      "Ġdropped": 2110,
      "Ġslowly": 2111,
      "Ġsummer": 2112,
      "Ġcruel": 2113,
      "aen": 2114,
      "dered": 2115,
      "eg": 2116,
      "teen": 2117,
      "uck": 2118,
      "udd": 2119,
      "Ġsort": 2120,
      "int": 2121,
      "Ġhill": 2122,
      "Ġmine": 2123,
      "oras": 2124,
      "orted": 2125,
      "Ġdawn": 2126,
      "ĠIrri": 2127,
      "Ġeast": 2128,
      "Ġreach": 2129,
      "ĠJeyne": 2130,
      "alm": 2131,
      "Ġblow": 2132,
      "Ġknelt": 2133,
      "Ġann": 2134,
      "Ġchar": 2135,
      "Ġplate": 2136,
      "Ġbloody": 2137,
      "Ġrain": 2138,
      "Ġtaking": 2139,
      "Ġtowers": 2140,
      "Ġfinally": 2141,
      "Ġclean": 2142,
      "hiqui": 2143,
      "Ġtorch": 2144,
      "Ġquestion": 2145,
      "aenerys": 2146,
      "ees": 2147,
      "sing": 2148,
      "Ġ'": 2149,
      "Ġsing": 2150,
      "Ġwide": 2151,
      "Ġwool": 2152,
      "iness": 2153,
      "read": 2154,
      "Ġfro": 2155,
      "Ġmad": 2156,
      "Ġmaking": 2157,
      "Ġmounted": 2158,
      "Ġcried": 2159,
      "aring": 2160,
      "ask": 2161,
      "Ġgate": 2162,
      "Ġyell": 2163,
      "Ġstri": 2164,
      "Ġstair": 2165,
      "Ġeight": 2166,
      "Ġecho": 2167,
      "sel": 2168,
      "aym": 2169,
      "Ġwhore": 2170,
      "Ġshiver": 2171,
      "Ġread": 2172,
      "Ġknees": 2173,
      "unted": 2174,
      "Ġleaves": 2175,
      "Ġboots": 2176,
      "ĠEdmure": 2177,
      "otho": 2178,
      "Ġbelt": 2179,
      "Ġprotect": 2180,
      "Ġdism": 2181,
      "Ġlowered": 2182,
      "Ġnames": 2183,
      "Ġburning": 2184,
      "Ġfrowned": 2185,
      "Ġtongue": 2186,
      "On": 2187,
      "kin": 2188,
      "Ġten": 2189,
      "erv": 2190,
      "Ġnone": 2191,
      "Ġinter": 2192,
      "Ġstre": 2193,
      "Ġstop": 2194,
      "ĠHall": 2195,
      "Ġeither": 2196,
      "Ġham": 2197,
      "rage": 2198,
      "ayer": 2199,
      "ĠJhiqui": 2200,
      "ĠNot": 2201,
      "ĠDaenerys": 2202,
      "Ġanx": 2203,
      "oney": 2204,
      "Ġswung": 2205,
      "Ġclothes": 2206,
      "Ġspl": 2207,
      "eled": 2208,
      "Ġtwisted": 2209,
      "Ġglim": 2210,
      "Ġdraw": 2211,
      "Ġneeds": 2212,
      "Ġgodswood": 2213,
      "ably": 2214,
      "Ġsurr": 2215,
      "ĠTarly": 2216,
      "Ġservants": 2217,
      "Ro": 2218,
      "Tell": 2219,
      "ia": 2220,
      "layer": 2221,
      "over": 2222,
      "Ġtun": 2223,
      "Ġtourney": 2224,
      "Ġau": 2225,
      "Ġwinter": 2226,
      "Ġhit": 2227,
      "Ġfled": 2228,
      "Ġheal": 2229,
      "Ġmare": 2230,
      "Ġmag": 2231,
      "ating": 2232,
      "Ġpar": 2233,
      "Ġpap": 2234,
      "Ġass": 2235,
      "stone": 2236,
      "Ġwithin": 2237,
      "ĠLoras": 2238,
      "oren": 2239,
      "Ġlion": 2240,
      "Ġswall": 2241,
      "Ġchill": 2242,
      "elc": 2243,
      "Ġweight": 2244,
      "Ġarmy": 2245,
      "Ġknows": 2246,
      "Ġbron": 2247,
      "Ġanyone": 2248,
      "Ġmud": 2249,
      "Ġeverything": 2250,
      "Ġcont": 2251,
      "Ġstubb": 2252,
      "Ġfallen": 2253,
      "Ġguardsmen": 2254,
      "Ġreminded": 2255,
      "ĠBaelish": 2256,
      "Ġforgotten": 2257,
      "..": 2258,
      "Let": 2259,
      "Not": 2260,
      "cy": 2261,
      "pr": 2262,
      "ton": 2263,
      "Ġsense": 2264,
      "Ġwis": 2265,
      "Ġwings": 2266,
      "Ġbus": 2267,
      "Ġob": 2268,
      "Ġfist": 2269,
      "Ġfaint": 2270,
      "Ġmid": 2271,
      "Ġtoday": 2272,
      "Ġbeast": 2273,
      "oole": 2274,
      "ĠWith": 2275,
      "ĠRe": 2276,
      "Ġrough": 2277,
      "Ġkno": 2278,
      "oreah": 2279,
      "Ġanim": 2280,
      "Ġanci": 2281,
      "Ġwouldn": 2282,
      "Ġlived": 2283,
      "Ġhandmaid": 2284,
      "Ġsmo": 2285,
      "ĠFl": 2286,
      "ĠEvery": 2287,
      "pected": 2288,
      "Ġwaited": 2289,
      "Ġbirds": 2290,
      "Ġbaby": 2291,
      "Ġbright": 2292,
      "Ġterrible": 2293,
      "Ġbronze": 2294,
      "Ġancient": 2295,
      "In": 2296,
      "hor": 2297,
      "Ġtaught": 2298,
      "Ġwelc": 2299,
      "Ġbook": 2300,
      "Ġfive": 2301,
      "Ġfine": 2302,
      "Ġcir": 2303,
      "Ġtonight": 2304,
      "Ġdang": 2305,
      "Ġround": 2306,
      "ĠChe": 2307,
      "Ġmyself": 2308,
      "Ġspear": 2309,
      "Ġwhole": 2310,
      "Ġwarned": 2311,
      "Ġwants": 2312,
      "Ġneeded": 2313,
      "anged": 2314,
      "Ġbegin": 2315,
      "Ġexpl": 2316,
      "Ġstud": 2317,
      "Ġholdfast": 2318,
      "Ġshouting": 2319,
      "Ġeasy": 2320,
      "Ġinsisted": 2321,
      "Ġdamn": 2322,
      "Well": 2323,
      "ding": 2324,
      "ips": 2325,
      "so": 2326,
      "Ġtired": 2327,
      "issed": 2328,
      "Ġfought": 2329,
      "Ġfinger": 2330,
      "Ġcamp": 2331,
      "Ġlands": 2332,
      "Ġdanc": 2333,
      "Ġthrow": 2334,
      "ĠSand": 2335,
      "acing": 2336,
      "ĠMer": 2337,
      "Ġlead": 2338,
      "Ġsmoke": 2339,
      "ĠKar": 2340,
      "ĠFrom": 2341,
      "ĠPoole": 2342,
      "ĠOsha": 2343,
      "Ġthrust": 2344,
      "Ġgrim": 2345,
      "Ġsomehow": 2346,
      "Ġglo": 2347,
      "Ġpol": 2348,
      "Ġthinking": 2349,
      "Ġslee": 2350,
      "Ġbench": 2351,
      "osed": 2352,
      "Ġcrack": 2353,
      "Ġpleased": 2354,
      "Ġpoint": 2355,
      "ĠKingslayer": 2356,
      "Ġquickly": 2357,
      "Ġmurm": 2358,
      "ĠQotho": 2359,
      "ĠMoon": 2360,
      "Ġleaned": 2361,
      "Ġmuttered": 2362,
      "Ġbrushed": 2363,
      "Ġgrief": 2364,
      "Ġbloodriders": 2365,
      "egi": 2366,
      "Ġannounced": 2367,
      "Ġsurrounded": 2368,
      "ĠSandor": 2369,
      "ON": 2370,
      "ces": 2371,
      "lted": 2372,
      "Ġvel": 2373,
      "Ġsor": 2374,
      "Ġsinger": 2375,
      "Ġbone": 2376,
      "isk": 2377,
      "Ġfav": 2378,
      "Ġheir": 2379,
      "ati": 2380,
      "asped": 2381,
      "Ġgather": 2382,
      "Ġgru": 2383,
      "Ġstars": 2384,
      "Ġstiff": 2385,
      "Ġsav": 2386,
      "amed": 2387,
      "ĠMag": 2388,
      "ĠMount": 2389,
      "Ġbutcher": 2390,
      "ĠDoreah": 2391,
      "Ġarri": 2392,
      "Ġchance": 2393,
      "Ġchair": 2394,
      "ouses": 2395,
      "aged": 2396,
      "Ġentered": 2397,
      "Ġwarri": 2398,
      "ances": 2399,
      "Ġpressed": 2400,
      "Ġlightly": 2401,
      "Ġdress": 2402,
      "Ġdressed": 2403,
      "Ġcrown": 2404,
      "Ġsurpr": 2405,
      "ĠSamwell": 2406,
      "ĠOnce": 2407,
      "Ġgrave": 2408,
      "Ġsepta": 2409,
      "Ġbecause": 2410,
      "Ġstories": 2411,
      "Ġvelve": 2412,
      "Come": 2413,
      "Did": 2414,
      "Who": 2415,
      "house": 2416,
      "pse": 2417,
      "Ġable": 2418,
      "Ġhide": 2419,
      "Ġoil": 2420,
      "Ġfee": 2421,
      "Ġfair": 2422,
      "ature": 2423,
      "Ġdrun": 2424,
      "Ġgri": 2425,
      "Ġgift": 2426,
      "ĠTell": 2427,
      "Ġhers": 2428,
      "ĠIron": 2429,
      "ĠImp": 2430,
      "Ġstir": 2431,
      "Ġstared": 2432,
      "stark": 2433,
      "ents": 2434,
      "pper": 2435,
      "ĠGo": 2436,
      "ĠGate": 2437,
      "Ġvan": 2438,
      "ĠStone": 2439,
      "ĠOr": 2440,
      "Ġjo": 2441,
      "Ġslaves": 2442,
      "ict": 2443,
      "Ġbrid": 2444,
      "Ġrider": 2445,
      "Ġproud": 2446,
      "ĠThorne": 2447,
      "Ġpres": 2448,
      "Ġmountains": 2449,
      "Ġsooner": 2450,
      "Ġcrossed": 2451,
      "Ġcourtes": 2452,
      "Ġlearn": 2453,
      "Ġcheek": 2454,
      "evan": 2455,
      "Ġcourage": 2456,
      "ĠKarstark": 2457,
      "Where": 2458,
      "bow": 2459,
      "born": 2460,
      "fer": 2461,
      "hood": 2462,
      "ich": 2463,
      "jon": 2464,
      "yann": 2465,
      "Ġign": 2466,
      "Ġsour": 2467,
      "Ġweep": 2468,
      "iny": 2469,
      "inally": 2470,
      "Ġhum": 2471,
      "Ġbound": 2472,
      "Ġheat": 2473,
      "Ġdare": 2474,
      "asp": 2475,
      "Ġnerv": 2476,
      "Ġgrand": 2477,
      "ĠSomet": 2478,
      "lyri": 2479,
      "Ġstable": 2480,
      "Ġwhich": 2481,
      "Ġshow": 2482,
      "illion": 2483,
      "Ġready": 2484,
      "uring": 2485,
      "Ġring": 2486,
      "Ġrise": 2487,
      "Ġmeet": 2488,
      "Ġblank": 2489,
      "ĠNor": 2490,
      "ĠDon": 2491,
      "Ġthemselves": 2492,
      "Ġsworn": 2493,
      "ĠKhaleesi": 2494,
      "ĠKevan": 2495,
      "ĠFinally": 2496,
      "Ġcompl": 2497,
      "ief": 2498,
      "Ġwoke": 2499,
      "Ġsnapped": 2500,
      "Ġprincess": 2501,
      "Ġconc": 2502,
      "ĠYoren": 2503,
      "Ġholding": 2504,
      "Ġimag": 2505,
      "Ġfalling": 2506,
      "Ġscreaming": 2507,
      "Ġdeser": 2508,
      "Ġappro": 2509,
      "Ġquietly": 2510,
      "Ġlearned": 2511,
      "Ġtrick": 2512,
      "Ġbannermen": 2513,
      "Ġflew": 2514,
      "Ġgrinned": 2515,
      "Ġrising": 2516,
      "Ġshrugged": 2517,
      "ĠShagga": 2518,
      "yanna": 2519,
      "Then": 2520,
      "ns": 2521,
      "wed": 2522,
      "ymer": 2523,
      "Ġhoo": 2524,
      "edle": 2525,
      "Ġfam": 2526,
      "Ġcand": 2527,
      "Ġcool": 2528,
      "Ġpaid": 2529,
      "ĠHal": 2530,
      "ett": 2531,
      "ĠLet": 2532,
      "ames": 2533,
      "ales": 2534,
      "Ġleaving": 2535,
      "Ġclut": 2536,
      "Ġroyal": 2537,
      "rank": 2538,
      "Ġbrow": 2539,
      "Ġdemand": 2540,
      "Ġdecl": 2541,
      "Ġweap": 2542,
      "Ġquar": 2543,
      "Ġoffered": 2544,
      "Ġju": 2545,
      "Ġrich": 2546,
      "Ġwolves": 2547,
      "Ġcommands": 2548,
      "Ġstupid": 2549,
      "hogo": 2550,
      "Ġfollow": 2551,
      "Ġremained": 2552,
      "Ġparty": 2553,
      "Ġbells": 2554,
      "Ġwondering": 2555,
      "ĠValyri": 2556,
      "ĠOthers": 2557,
      "ymeria": 2558,
      "bed": 2559,
      "ues": 2560,
      "Ġtrot": 2561,
      "Ġarak": 2562,
      "Ġwi": 2563,
      "Ġbigg": 2564,
      "Ġfood": 2565,
      "Ġhesit": 2566,
      "Ġmaid": 2567,
      "oros": 2568,
      "aro": 2569,
      "Ġdu": 2570,
      "Ġdut": 2571,
      "Ġgest": 2572,
      "Ġport": 2573,
      "Ġpower": 2574,
      "Ġstom": 2575,
      "Ġstones": 2576,
      "Ġstables": 2577,
      "Ġones": 2578,
      "oooo": 2579,
      "Ġ...": 2580,
      "cend": 2581,
      "Ġshut": 2582,
      "Ġreg": 2583,
      "ĠNymeria": 2584,
      "ĠCo": 2585,
      "Ġswore": 2586,
      "Ġclans": 2587,
      "Ġchin": 2588,
      "Ġbackward": 2589,
      "rows": 2590,
      "Ġthank": 2591,
      "psed": 2592,
      "Ġragged": 2593,
      "Ġloyal": 2594,
      "Ġhoped": 2595,
      "Ġpoor": 2596,
      "Ġbreak": 2597,
      "bbing": 2598,
      "Ġeveryone": 2599,
      "Ġdoors": 2600,
      "Ġslept": 2601,
      "Ġridden": 2602,
      "ĠThr": 2603,
      "Ġjustice": 2604,
      "Ġtrait": 2605,
      "Ġclear": 2606,
      "Ġstaring": 2607,
      "Ġgrabbed": 2608,
      "Ġinstead": 2609,
      "Ġlaughing": 2610,
      "ĠGreatjon": 2611,
      "ĠVaes": 2612,
      "Ġbrave": 2613,
      "Ġmaegi": 2614,
      "Ġharm": 2615,
      "Ġadmitted": 2616,
      "Ġstubborn": 2617,
      "Ġsorry": 2618,
      "Ġarakh": 2619,
      "Here": 2620,
      "St": 2621,
      "af": 2622,
      "has": 2623,
      "ner": 2624,
      "ror": 2625,
      "tt": 2626,
      "Ġwake": 2627,
      "Ġhate": 2628,
      "Ġhoney": 2629,
      "rell": 2630,
      "Ġfit": 2631,
      "Ġfish": 2632,
      "Ġmark": 2633,
      "Ġcro": 2634,
      "athed": 2635,
      "oned": 2636,
      "Ġline": 2637,
      "Ġdared": 2638,
      "Ġple": 2639,
      "Ġwasn": 2640,
      "Ġstrang": 2641,
      "ĠLyanna": 2642,
      "Ġwhatever": 2643,
      "Ġsha": 2644,
      "Ġship": 2645,
      "Ġshrie": 2646,
      "Ġrather": 2647,
      "rant": 2648,
      "ĠGared": 2649,
      "Ġvast": 2650,
      "Ġspread": 2651,
      "antly": 2652,
      "ĠFree": 2653,
      "ggling": 2654,
      "Ġscent": 2655,
      "Ġjaw": 2656,
      "Ġbread": 2657,
      "hold": 2658,
      "Ġwhisper": 2659,
      "Ġmarch": 2660,
      "Ġhunt": 2661,
      "Ġcheeks": 2662,
      "Ġtrouble": 2663,
      "Gods": 2664,
      "ĠDragonstone": 2665,
      "Ġfierce": 2666,
      "Ġyellow": 2667,
      "Ġpaper": 2668,
      "ĠMagister": 2669,
      "Ġstomach": 2670,
      "Are": 2671,
      "His": 2672,
      "Now": 2673,
      "apt": 2674,
      "abb": 2675,
      "mies": 2676,
      "son": 2677,
      "Ġad": 2678,
      "Ġwren": 2679,
      "Ġhidden": 2680,
      "Ġbones": 2681,
      "Ġoak": 2682,
      "Ġfif": 2683,
      "Ġfaster": 2684,
      "Ġlit": 2685,
      "ited": 2686,
      "ashing": 2687,
      "Ġnaked": 2688,
      "Ġgent": 2689,
      "Ġpi": 2690,
      "Ġyouth": 2691,
      "otted": 2692,
      "Ġsave": 2693,
      "Ġeag": 2694,
      "Ġkit": 2695,
      "Ġug": 2696,
      "Ġrepe": 2697,
      "asted": 2698,
      "Ġdog": 2699,
      "Ġbroad": 2700,
      "usted": 2701,
      "Ġvict": 2702,
      "Ġglad": 2703,
      "Ġwindows": 2704,
      "oster": 2705,
      "ĠTyrell": 2706,
      "Ġsometimes": 2707,
      "Ġcuri": 2708,
      "Ġbitter": 2709,
      "Ġfreer": 2710,
      "Ġdaughters": 2711,
      "ĠPrincess": 2712,
      "Ġrecog": 2713,
      "ĠNeedle": 2714,
      "Ġcaptain": 2715,
      "Ġprice": 2716,
      "Ġenemies": 2717,
      "Ġeggs": 2718,
      "Ġbusiness": 2719,
      "ĠMeryn": 2720,
      "Ġrecogn": 2721,
      "AR": 2722,
      "All": 2723,
      "Perhaps": 2724,
      "hand": 2725,
      "mall": 2726,
      "mail": 2727,
      "use": 2728,
      "Ġill": 2729,
      "Ġent": 2730,
      "Ġtang": 2731,
      "Ġwrist": 2732,
      "Ġband": 2733,
      "Ġoath": 2734,
      "ress": 2735,
      "Ġfra": 2736,
      "Ġhell": 2737,
      "Ġmiss": 2738,
      "Ġmakes": 2739,
      "Ġmorrow": 2740,
      "Ġgates": 2741,
      "ĠSel": 2742,
      "Ġstory": 2743,
      "Ġsand": 2744,
      "Ġkhas": 2745,
      "irled": 2746,
      "Ġforced": 2747,
      "Ġshared": 2748,
      "Ġshattered": 2749,
      "ĠBro": 2750,
      "entos": 2751,
      "Ġdogs": 2752,
      "Ġclaim": 2753,
      "Ġcouldn": 2754,
      "Ġspo": 2755,
      "thy": 2756,
      "ĠPentos": 2757,
      "Ġwhose": 2758,
      "Ġmoving": 2759,
      "Ġsisters": 2760,
      "Ġbuilt": 2761,
      "eyed": 2762,
      "Ġpleasure": 2763,
      "Ġrule": 2764,
      "Ġmurder": 2765,
      "Ġstraight": 2766,
      "Ġwearing": 2767,
      "Ġdistant": 2768,
      "Ġsurely": 2769,
      "Ġtroub": 2770,
      "Ġsongs": 2771,
      "Ġmassive": 2772,
      "Ġcandle": 2773,
      "ĠThrone": 2774,
      "ĠSelmy": 2775,
      "But": 2776,
      "For": 2777,
      "app": 2778,
      "ber": 2779,
      "fo": 2780,
      "ible": 2781,
      "land": 2782,
      "ume": 2783,
      "ye": 2784,
      "zz": 2785,
      "Ġ1": 2786,
      "erly": 2787,
      "Ġbran": 2788,
      "Ġmis": 2789,
      "ange": 2790,
      "Ġden": 2791,
      "Ġdrank": 2792,
      "ĠIlyn": 2793,
      "tering": 2794,
      "irwood": 2795,
      "Ġitself": 2796,
      "ĠAerys": 2797,
      "ĠJhogo": 2798,
      "Ġmem": 2799,
      "cks": 2800,
      "ĠCities": 2801,
      "Ġlikes": 2802,
      "Ġloose": 2803,
      "Ġsusp": 2804,
      "Ġweirwood": 2805,
      "ault": 2806,
      "Ġque": 2807,
      "Ġcoin": 2808,
      "Ġjer": 2809,
      "othing": 2810,
      "Ġripped": 2811,
      "Ġwaters": 2812,
      "Ġglance": 2813,
      "Ġafterward": 2814,
      "Ġhandsome": 2815,
      "Ġexc": 2816,
      "Ġpract": 2817,
      "arsh": 2818,
      "Ġserve": 2819,
      "Ġfeared": 2820,
      "Ġsounded": 2821,
      "Ġmounts": 2822,
      "Ġmarry": 2823,
      "Ġdreams": 2824,
      "Ġbastards": 2825,
      "Ġmurdered": 2826,
      "Ġhunting": 2827,
      "Ġrangers": 2828,
      "Ġwhether": 2829,
      "Ġstruggled": 2830,
      "Ġconfess": 2831,
      "Ġenemy": 2832,
      "ĠBehind": 2833,
      "Ġapart": 2834,
      "Ġmessage": 2835,
      "Ġanimal": 2836,
      "Ġhandmaids": 2837,
      "Ġwelcome": 2838,
      "Ġmurmured": 2839,
      "Ġvelvet": 2840,
      "Ġbridge": 2841,
      "foot": 2842,
      "Ġsuspic": 2843,
      "Arya": 2844,
      "Can": 2845,
      "Don": 2846,
      "ger": 2847,
      "ming": 2848,
      "ny": 2849,
      "sur": 2850,
      "hel": 2851,
      "Ġwra": 2852,
      "Ġbal": 2853,
      "Ġmons": 2854,
      "Ġcow": 2855,
      "Ġlin": 2856,
      "ades": 2857,
      "Ġpour": 2858,
      "imp": 2859,
      "let": 2860,
      "Ġstag": 2861,
      "Ġshaking": 2862,
      "ĠBra": 2863,
      "ĠJare": 2864,
      "ention": 2865,
      "ĠWaym": 2866,
      "ĠMall": 2867,
      "ĠMore": 2868,
      "astle": 2869,
      "ĠCon": 2870,
      "Ġarcher": 2871,
      "Ġseal": 2872,
      "geon": 2873,
      "ggo": 2874,
      "Ġsugg": 2875,
      "Ġplain": 2876,
      "Ġjourney": 2877,
      "Ġsnar": 2878,
      "lessly": 2879,
      "Ġfires": 2880,
      "Ġcarved": 2881,
      "Ġuncertain": 2882,
      "Ġfeed": 2883,
      "Ġsleeping": 2884,
      "cella": 2885,
      "Ġlistened": 2886,
      "Ġfinished": 2887,
      "Ġsigil": 2888,
      "Ġlistening": 2889,
      "Ġhungry": 2890,
      "Ġloudly": 2891,
      "Ġfields": 2892,
      "Ġmercy": 2893,
      "Ġdecided": 2894,
      "ĠMarillion": 2895,
      "Ġurged": 2896,
      "Ġdanger": 2897,
      "Ġfavor": 2898,
      "Ġrepeated": 2899,
      "ĠJaremy": 2900,
      "ĠWaymar": 2901,
      "ster": 2902,
      "tled": 2903,
      "under": 2904,
      "Ġwise": 2905,
      "Ġhouses": 2906,
      "Ġheels": 2907,
      "Ġmon": 2908,
      "Ġcat": 2909,
      "ider": 2910,
      "Ġpig": 2911,
      "ĠHoster": 2912,
      "oming": 2913,
      "Ġund": 2914,
      "Ġnoticed": 2915,
      "ĠAl": 2916,
      "Ġleag": 2917,
      "ppy": 2918,
      "Ġroof": 2919,
      "ĠKnight": 2920,
      "Ġslam": 2921,
      "Ġhowling": 2922,
      "Ġserving": 2923,
      "Ġsounds": 2924,
      "Ġtaller": 2925,
      "Ġsecret": 2926,
      "Ġelbow": 2927,
      "Ġeasily": 2928,
      "Ġbreasts": 2929,
      "ĠAegon": 2930,
      "Ġcrept": 2931,
      "Ġcolor": 2932,
      "Ġhours": 2933,
      "ĠAnother": 2934,
      "ĠWhite": 2935,
      "ĠMyrcella": 2936,
      "Ġdirt": 2937,
      "Ġrolled": 2938,
      "ottom": 2939,
      "Ġfortnight": 2940,
      "ĠShad": 2941,
      "Ġcollar": 2942,
      "Ġcirc": 2943,
      "Ġstudied": 2944,
      "iskers": 2945,
      "Ġimagine": 2946,
      "Ġdeclared": 2947,
      "To": 2948,
      "Take": 2949,
      "bert": 2950,
      "chen": 2951,
      "fall": 2952,
      "lands": 2953,
      "no": 2954,
      "nel": 2955,
      "pted": 2956,
      "Ġve": 2957,
      "Ġic": 2958,
      "Ġtorn": 2959,
      "Ġhood": 2960,
      "Ġfal": 2961,
      "Ġlur": 2962,
      "Ġdust": 2963,
      "assel": 2964,
      "Ġgame": 2965,
      "ĠTwo": 2966,
      "Ġpit": 2967,
      "Ġpad": 2968,
      "Ġpicked": 2969,
      "imson": 2970,
      "Ġkicked": 2971,
      "ĠAlyn": 2972,
      "Ġshone": 2973,
      "Ġreins": 2974,
      "amn": 2975,
      "aming": 2976,
      "ĠWhere": 2977,
      "Ġblur": 2978,
      "ĠCassel": 2979,
      "Ġchange": 2980,
      "Ġspi": 2981,
      "Ġbold": 2982,
      "Ġhanded": 2983,
      "Ġscabb": 2984,
      "Ġcomfort": 2985,
      "Ġoffer": 2986,
      "lings": 2987,
      "Ġraw": 2988,
      "Ġsnatched": 2989,
      "ums": 2990,
      "Ġexpected": 2991,
      "Ġridge": 2992,
      "Ġpride": 2993,
      "Ġgiving": 2994,
      "Ġarmored": 2995,
      "Ġburied": 2996,
      "Ġuncom": 2997,
      "Ġcurt": 2998,
      "Ġdirewolves": 2999,
      "Ġbreathing": 3000,
      "Ġvisor": 3001,
      "Ġrecall": 3002,
      "ĠToad": 3003,
      "Ġsharply": 3004,
      "Ġsmelled": 3005,
      "Ġwalking": 3006,
      "Ġservice": 3007,
      "Ġarrows": 3008,
      "Ġcorner": 3009,
      "Ġsolar": 3010,
      "Ġchambers": 3011,
      "Robert": 3012,
      "Ġsleeve": 3013,
      "Ġsurprise": 3014,
      "Ġtraitor": 3015,
      "Ġwrenched": 3016,
      "Ġfifty": 3017,
      "Ġfreeriders": 3018,
      "Have": 3019,
      "Jon": 3020,
      "Please": 3021,
      "wled": 3022,
      "Ġsides": 3023,
      "eric": 3024,
      "reen": 3025,
      "Ġmatch": 3026,
      "ork": 3027,
      "Ġcatch": 3028,
      "idered": 3029,
      "Ġpard": 3030,
      "Ġpill": 3031,
      "Ġpath": 3032,
      "Ġpool": 3033,
      "ĠSudd": 3034,
      "Ġbeat": 3035,
      "Ġemer": 3036,
      "Ġhadn": 3037,
      "ĠAggo": 3038,
      "Ġwhip": 3039,
      "ards": 3040,
      "Ġrequ": 3041,
      "ĠBet": 3042,
      "ĠBeric": 3043,
      "Ġatop": 3044,
      "Ġblades": 3045,
      "chamb": 3046,
      "Ġchamp": 3047,
      "Ġneither": 3048,
      "Ġseems": 3049,
      "ĠStor": 3050,
      "Ġalso": 3051,
      "Ġsniff": 3052,
      "umped": 3053,
      "Ġdrawn": 3054,
      "Ġnights": 3055,
      "plate": 3056,
      "ended": 3057,
      "Ġcrimson": 3058,
      "member": 3059,
      "Ġnorther": 3060,
      "Ġstumbled": 3061,
      "Ġdisc": 3062,
      "Ġbedchamb": 3063,
      "Ġpassing": 3064,
      "Ġturning": 3065,
      "Ġgotten": 3066,
      "Ġrespect": 3067,
      "Ġsuppose": 3068,
      "Ġweary": 3069,
      "Ġbecome": 3070,
      "Ġcorpse": 3071,
      "Ġcolum": 3072,
      "Ġstroked": 3073,
      "Ġwrit": 3074,
      "Ġescort": 3075,
      "Ġburst": 3076,
      "Ġhills": 3077,
      "Ġechoed": 3078,
      "Ġanxious": 3079,
      "Ġgrip": 3080,
      "Ġclutched": 3081,
      "Ġdemanded": 3082,
      "ĠValyrian": 3083,
      "Ġbigger": 3084,
      "Ġgentle": 3085,
      "Ġkitchen": 3086,
      "Ġugly": 3087,
      "ĠBrother": 3088,
      "Ġqueer": 3089,
      "Hodor": 3090,
      "ges": 3091,
      "iar": 3092,
      "kward": 3093,
      "mo": 3094,
      "mond": 3095,
      "rack": 3096,
      "you": 3097,
      "Ġwished": 3098,
      "Ġba": 3099,
      "Ġbald": 3100,
      "Ġcook": 3101,
      "Ġlance": 3102,
      "Ġdies": 3103,
      "ased": 3104,
      "Ġthigh": 3105,
      "Ġgown": 3106,
      "Ġpot": 3107,
      "Ġinc": 3108,
      "Ġkissed": 3109,
      "set": 3110,
      "ĠLe": 3111,
      "Ġnotice": 3112,
      "Ġwhiskers": 3113,
      "Ġshame": 3114,
      "ĠBoros": 3115,
      "iles": 3116,
      "Ġrust": 3117,
      "Ġmel": 3118,
      "ĠDar": 3119,
      "Ġleapt": 3120,
      "Ġnoble": 3121,
      "Ġallowed": 3122,
      "Ġrot": 3123,
      "Ġspat": 3124,
      "Ġspir": 3125,
      "Ġspra": 3126,
      "Ġboar": 3127,
      "ĠFore": 3128,
      "Ġalike": 3129,
      "Ġuns": 3130,
      "Ġthanks": 3131,
      "Ġflick": 3132,
      "Ġflame": 3133,
      "Ġflames": 3134,
      "ĠOh": 3135,
      "ires": 3136,
      "Ġtwist": 3137,
      "Ġsilks": 3138,
      "Ġact": 3139,
      "gold": 3140,
      "Ġpoison": 3141,
      "pless": 3142,
      "Ġprison": 3143,
      "Ġwaist": 3144,
      "ĠThree": 3145,
      "Ġcrun": 3146,
      "Ġdisapp": 3147,
      "eyond": 3148,
      "aggo": 3149,
      "Ġfeather": 3150,
      "Ġpainted": 3151,
      "Ġstronger": 3152,
      "Ġrub": 3153,
      "ĠUsur": 3154,
      "Ġdescend": 3155,
      "Ġhappen": 3156,
      "Ġlesson": 3157,
      "Ġcrypt": 3158,
      "Ġbelieved": 3159,
      "claim": 3160,
      "Ġunderstood": 3161,
      "Ġfury": 3162,
      "Ġmoonlight": 3163,
      "Ġdistance": 3164,
      "Ġsummon": 3165,
      "Ġravens": 3166,
      "Ġwedding": 3167,
      "Ġpup": 3168,
      "Ġstruck": 3169,
      "Ġteach": 3170,
      "ĠTommen": 3171,
      "Ġreply": 3172,
      "Ġpretty": 3173,
      "Ġdoublet": 3174,
      "ĠUncle": 3175,
      "Ġstairs": 3176,
      "Ġglimpsed": 3177,
      "ĠFlowers": 3178,
      "Ġarrived": 3179,
      "Ġvanished": 3180,
      "Ġweeping": 3181,
      "Ġconcern": 3182,
      "ĠShadow": 3183,
      "Ġscabbard": 3184,
      "Ġuncomfort": 3185,
      "ĠSuddenly": 3186,
      "ĠUsurper": 3187,
      "Some": 3188,
      "Will": 3189,
      "burn": 3190,
      "dled": 3191,
      "eys": 3192,
      "ipp": 3193,
      "oped": 3194,
      "ually": 3195,
      "vent": 3196,
      "wyn": 3197,
      "Ġhig": 3198,
      "Ġbid": 3199,
      "ises": 3200,
      "Ġfears": 3201,
      "Ġcen": 3202,
      "Ġcent": 3203,
      "Ġtown": 3204,
      "Ġtossed": 3205,
      "anked": 3206,
      "Ġpal": 3207,
      "Ġpers": 3208,
      "Ġpati": 3209,
      "ĠSlyn": 3210,
      "ĠHalder": 3211,
      "ĠHaggo": 3212,
      "ĠLook": 3213,
      "Ġform": 3214,
      "aybe": 3215,
      "cept": 3216,
      "Ġshowed": 3217,
      "ĠBal": 3218,
      "Ġringing": 3219,
      "ĠMa": 3220,
      "ĠMarsh": 3221,
      "Ġblaz": 3222,
      "Ġliving": 3223,
      "Ġnose": 3224,
      "Ġnoise": 3225,
      "Ġchains": 3226,
      "Ġchoose": 3227,
      "ately": 3228,
      "ĠGl": 3229,
      "Ġvows": 3230,
      "Ġspit": 3231,
      "Ġspun": 3232,
      "ests": 3233,
      "Ġune": 3234,
      "Ġlikely": 3235,
      "ĠOut": 3236,
      "ĠEnd": 3237,
      "Ġplaced": 3238,
      "Ġplump": 3239,
      "Ġslashed": 3240,
      "ushing": 3241,
      "Ġmock": 3242,
      "Ġsilently": 3243,
      "Ġlooks": 3244,
      "Ġbetray": 3245,
      "Ġcalling": 3246,
      "Ġbelong": 3247,
      "Ġslender": 3248,
      "Ġtelling": 3249,
      "ĠMya": 3250,
      "Ġarmory": 3251,
      "Ġcrowd": 3252,
      "Ġcursed": 3253,
      "Ġsquare": 3254,
      "Ġremain": 3255,
      "Ġappear": 3256,
      "ĠBlood": 3257,
      "Ġdrove": 3258,
      "ifteen": 3259,
      "Ġattack": 3260,
      "Ġawkward": 3261,
      "Ġlouder": 3262,
      "Ġstartled": 3263,
      "Ġwagons": 3264,
      "Ġfrozen": 3265,
      "Ġtunic": 3266,
      "Ġdancing": 3267,
      "ĠGods": 3268,
      "Ġjoined": 3269,
      "Ġblanket": 3270,
      "Ġtroubled": 3271,
      "Ġbedchamber": 3272,
      "ĠForel": 3273,
      "ĠSlynt": 3274,
      "Even": 3275,
      "Father": 3276,
      "fted": 3277,
      "nam": 3278,
      "phe": 3279,
      "ued": 3280,
      "val": 3281,
      "Ġadded": 3282,
      "Ġsim": 3283,
      "Ġhilt": 3284,
      "ndid": 3285,
      "Ġbath": 3286,
      "Ġorange": 3287,
      "Ġfa": 3288,
      "Ġfet": 3289,
      "Ġfil": 3290,
      "Ġcoun": 3291,
      "Ġcause": 3292,
      "arse": 3293,
      "llo": 3294,
      "Ġlying": 3295,
      "Ġdance": 3296,
      "Ġghost": 3297,
      "ĠTull": 3298,
      "Ġpair": 3299,
      "Ġpity": 3300,
      "ĠSmall": 3301,
      "Ġwashed": 3302,
      "acher": 3303,
      "Ġkhaleesi": 3304,
      "Ġforce": 3305,
      "ayn": 3306,
      "ayne": 3307,
      "Ġshif": 3308,
      "ĠBol": 3309,
      "ĠWas": 3310,
      "ils": 3311,
      "Ġrat": 3312,
      "ĠMost": 3313,
      "Ġmeans": 3314,
      "Ġisn": 3315,
      "ĠDes": 3316,
      "ĠCastle": 3317,
      "ounding": 3318,
      "Ġlip": 3319,
      "Ġswift": 3320,
      "Ġarg": 3321,
      "Ġallow": 3322,
      "Ġseeing": 3323,
      "Ġvill": 3324,
      "Ġsple": 3325,
      "Ġdeal": 3326,
      "thor": 3327,
      "ĠFat": 3328,
      "gging": 3329,
      "Ġsuit": 3330,
      "Ġsuff": 3331,
      "Ġsullen": 3332,
      "Ġscared": 3333,
      "Ġlordling": 3334,
      "Ġflag": 3335,
      "hai": 3336,
      "arts": 3337,
      "Ġbride": 3338,
      "Ġenter": 3339,
      "ular": 3340,
      "Ġglass": 3341,
      "Ġpoppy": 3342,
      "Ġeverywhere": 3343,
      "Ġcracked": 3344,
      "Ġtrembling": 3345,
      "ĠMyc": 3346,
      "hollo": 3347,
      "Ġcrows": 3348,
      "Ġgrowing": 3349,
      "tempt": 3350,
      "ĠFork": 3351,
      "Ġforgive": 3352,
      "Ġsepton": 3353,
      "Ġsupposed": 3354,
      "Ġcraven": 3355,
      "Ġcompany": 3356,
      "Ġwines": 3357,
      "Ġdefend": 3358,
      "Ġhousehold": 3359,
      "Ġshoved": 3360,
      "Ġpieces": 3361,
      "Ġbleed": 3362,
      "Ġsingle": 3363,
      "Ġstreets": 3364,
      "Ġmagic": 3365,
      "Ġswallow": 3366,
      "ĠChett": 3367,
      "Ġfeeling": 3368,
      "Ġdrunk": 3369,
      "Ġhooves": 3370,
      "Ġhesitated": 3371,
      "Ġduty": 3372,
      "Ġclansmen": 3373,
      "Ġvictory": 3374,
      "Ġmemory": 3375,
      "Ġwrapped": 3376,
      "Ġslammed": 3377,
      "Ġicy": 3378,
      "Ġnorthern": 3379,
      "ĠMae": 3380,
      "ĠTullys": 3381,
      "AA": 3382,
      "Good": 3383,
      "Un": 3384,
      "cull": 3385,
      "dge": 3386,
      "fl": 3387,
      "fol": 3388,
      "iant": 3389,
      "mons": 3390,
      "pes": 3391,
      "Ġtear": 3392,
      "Ġtiny": 3393,
      "Ġaff": 3394,
      "Ġward": 3395,
      "Ġwounded": 3396,
      "Ġhated": 3397,
      "Ġbraid": 3398,
      "Ġfru": 3399,
      "Ġfash": 3400,
      "Ġhero": 3401,
      "Ġcalm": 3402,
      "Ġdun": 3403,
      "Ġdest": 3404,
      "Ġdried": 3405,
      "Ġdying": 3406,
      "Ġnur": 3407,
      "Ġnumb": 3408,
      "rosh": 3409,
      "rotect": 3410,
      "Ġgif": 3411,
      "ĠTH": 3412,
      "ĠTim": 3413,
      "ĠTwin": 3414,
      "Ġyield": 3415,
      "Ġpin": 3416,
      "Ġbeer": 3417,
      "Ġstret": 3418,
      "ĠHere": 3419,
      "irling": 3420,
      "utter": 3421,
      "Ġforb": 3422,
      "Ġforty": 3423,
      "Ġwhist": 3424,
      "Ġshining": 3425,
      "akh": 3426,
      "Ġblo": 3427,
      "ĠCrows": 3428,
      "Ġleap": 3429,
      "Ġlives": 3430,
      "Ġswept": 3431,
      "Ġmanaged": 3432,
      "key": 3433,
      "que": 3434,
      "Ġseized": 3435,
      "Ġbrothe": 3436,
      "Ġspears": 3437,
      "ĠStill": 3438,
      "Ġwept": 3439,
      "Ġcopper": 3440,
      "Ġplaces": 3441,
      "haired": 3442,
      "Ġslaughter": 3443,
      "Ġslipped": 3444,
      "Ġhorn": 3445,
      "Ġmocking": 3446,
      "iley": 3447,
      "avos": 3448,
      "ules": 3449,
      "Ġways": 3450,
      "Ġsnorted": 3451,
      "anging": 3452,
      "Ġskull": 3453,
      "Ġthinks": 3454,
      "Ġhearing": 3455,
      "ction": 3456,
      "ĠTyrosh": 3457,
      "Ġpress": 3458,
      "mense": 3459,
      "Ġremembering": 3460,
      "Ġserved": 3461,
      "Ġfarther": 3462,
      "ĠYes": 3463,
      "Ġgiant": 3464,
      "Ġbuck": 3465,
      "Ġdread": 3466,
      "Thank": 3467,
      "Ġcuts": 3468,
      "Ġsurv": 3469,
      "Ġcourse": 3470,
      "Ġsettled": 3471,
      "Ġhurried": 3472,
      "Ġforever": 3473,
      "Ġcrossing": 3474,
      "Ġgallant": 3475,
      "Ġgallop": 3476,
      "Ġbreastplate": 3477,
      "Ġstorm": 3478,
      "ĠNeck": 3479,
      "Ġbraz": 3480,
      "Ġrefle": 3481,
      "Ġwounds": 3482,
      "Ġflying": 3483,
      "Ġstrode": 3484,
      "Ġstrangely": 3485,
      "Ġurg": 3486,
      "Ġshrug": 3487,
      "Ġpurple": 3488,
      "Ġdelic": 3489,
      "Ġchamber": 3490,
      "Only": 3491,
      "Ġhammer": 3492,
      "Ġauburn": 3493,
      "Ġknocked": 3494,
      "Ġwarriors": 3495,
      "ĠNorth": 3496,
      "Ġgestured": 3497,
      "Ġportcull": 3498,
      "Ġlitter": 3499,
      "Ġrecognized": 3500,
      "Ġhells": 3501,
      "Ġbranches": 3502,
      "Ġmonsters": 3503,
      "ĠBraavos": 3504,
      "Ġarchers": 3505,
      "Ġleagues": 3506,
      "Ġchampion": 3507,
      "ĠStorm": 3508,
      "Ġbailey": 3509,
      "Ġcenter": 3510,
      "ĠGlover": 3511,
      "ĠBolton": 3512,
      "Ġfashion": 3513,
      "ĠTimett": 3514,
      "ĠTwins": 3515,
      ",,": 3516,
      "Be": 3517,
      "By": 3518,
      "Lady": 3519,
      "Look": 3520,
      "aver": 3521,
      "apping": 3522,
      "cc": 3523,
      "cious": 3524,
      "faced": 3525,
      "garden": 3526,
      "mn": 3527,
      "pit": 3528,
      "umed": 3529,
      "xes": 3530,
      "Ġtales": 3531,
      "Ġsize": 3532,
      "Ġwro": 3533,
      "oul": 3534,
      "Ġbottom": 3535,
      "Ġfaded": 3536,
      "Ġcas": 3537,
      "Ġcri": 3538,
      "atted": 3539,
      "Ġtone": 3540,
      "Ġlower": 3541,
      "anos": 3542,
      "Ġdanced": 3543,
      "Ġduring": 3544,
      "ese": 3545,
      "iding": 3546,
      "Ġinv": 3547,
      "owen": 3548,
      "leep": 3549,
      "Ġsta": 3550,
      "Ġkick": 3551,
      "Ġkiss": 3552,
      "str": 3553,
      "Ġwhirled": 3554,
      "Ġshare": 3555,
      "Ġshudd": 3556,
      "eek": 3557,
      "ĠJanos": 3558,
      "ĠWy": 3559,
      "ĠWho": 3560,
      "aled": 3561,
      "alty": 3562,
      "Ġblink": 3563,
      "ĠDid": 3564,
      "ores": 3565,
      "Ġsold": 3566,
      "Ġsole": 3567,
      "Ġmanhood": 3568,
      "Ġchanged": 3569,
      "Ġroared": 3570,
      "Ġvau": 3571,
      "Ġvie": 3572,
      "Ġspent": 3573,
      "Ġspotted": 3574,
      "sshai": 3575,
      "ĠProtect": 3576,
      "Ġscr": 3577,
      "Ġflowers": 3578,
      "ĠOF": 3579,
      "ĠEast": 3580,
      "Ġord": 3581,
      "Ġorder": 3582,
      "Ġknowing": 3583,
      "Ġtwice": 3584,
      "Ġrage": 3585,
      "ffled": 3586,
      "Ġlose": 3587,
      "Ġgrace": 3588,
      "ult": 3589,
      "Ġwary": 3590,
      "Ġhelpless": 3591,
      "Ġworked": 3592,
      "Ġcheese": 3593,
      "Ġexpect": 3594,
      "Ġwax": 3595,
      "Ġprefer": 3596,
      "Ġendless": 3597,
      "Ġarmorer": 3598,
      "Ġdeeper": 3599,
      "Ġdisg": 3600,
      "Ġcrowned": 3601,
      "aggy": 3602,
      "iper": 3603,
      "Ġimmense": 3604,
      "ship": 3605,
      "ĠInside": 3606,
      "Ġlift": 3607,
      "Ġcertainty": 3608,
      "Ġnews": 3609,
      "Ġdesper": 3610,
      "Ġfinal": 3611,
      "aws": 3612,
      "Ġcrying": 3613,
      "Ġsign": 3614,
      "Ġfourteen": 3615,
      "ixed": 3616,
      "Ġthreat": 3617,
      "Ġgalloped": 3618,
      "ĠRickard": 3619,
      "Ġinno": 3620,
      "Ġdamned": 3621,
      "Ġbadly": 3622,
      "Ġmerch": 3623,
      "Ġmistake": 3624,
      "Ġdrinking": 3625,
      "ĠHarren": 3626,
      "Ġcharge": 3627,
      "Ġdismounted": 3628,
      "Ġpolite": 3629,
      "ĠMountains": 3630,
      "Ġignored": 3631,
      "Ġnervous": 3632,
      "ĠSometimes": 3633,
      "Ġweapons": 3634,
      "Ġquarre": 3635,
      "ĠCohollo": 3636,
      "handed": 3637,
      "Ġpoured": 3638,
      "ĠMallister": 3639,
      "Ġpadded": 3640,
      "Ġhigher": 3641,
      "Ġflagon": 3642,
      "folk": 3643,
      "AM": 3644,
      "Ah": 3645,
      "Le": 3646,
      "RON": 3647,
      "Sto": 3648,
      "Would": 3649,
      "gain": 3650,
      "green": 3651,
      "mered": 3652,
      "oved": 3653,
      "sil": 3654,
      "yck": 3655,
      "yne": 3656,
      "Ġtalked": 3657,
      "Ġbite": 3658,
      "ressed": 3659,
      "Ġfu": 3660,
      "Ġfifteen": 3661,
      "Ġmour": 3662,
      "Ġcap": 3663,
      "ations": 3664,
      "ingered": 3665,
      "ench": 3666,
      "Ġtom": 3667,
      "llow": 3668,
      "Ġthumb": 3669,
      "ldom": 3670,
      "Ġpony": 3671,
      "ĠSl": 3672,
      "Ġbend": 3673,
      "Ġstout": 3674,
      "ĠHorn": 3675,
      "Ġash": 3676,
      "oms": 3677,
      "rion": 3678,
      "ĠThese": 3679,
      "ste": 3680,
      "Ġsheep": 3681,
      "ĠAre": 3682,
      "ĠAsshai": 3683,
      "Ġshy": 3684,
      "Ġshaggy": 3685,
      "Ġreason": 3686,
      "ĠBowen": 3687,
      "Ġate": 3688,
      "ĠRoose": 3689,
      "ĠRakh": 3690,
      "Ġrings": 3691,
      "Ġrush": 3692,
      "Ġmeal": 3693,
      "Ġant": 3694,
      "ĠCome": 3695,
      "ĠChi": 3696,
      "Ġleading": 3697,
      "Ġlies": 3698,
      "Ġseldom": 3699,
      "Ġoutl": 3700,
      "ĠLords": 3701,
      "Ġspill": 3702,
      "Ġboiled": 3703,
      "ĠFre": 3704,
      "Ġsub": 3705,
      "Ġagree": 3706,
      "Ġscattered": 3707,
      "ĠOur": 3708,
      "iege": 3709,
      "pses": 3710,
      "rent": 3711,
      "Ġafterno": 3712,
      "Ġharder": 3713,
      "Ġchewed": 3714,
      "Ġexp": 3715,
      "Ġexch": 3716,
      "Ġcrimes": 3717,
      "Ġhearth": 3718,
      "Ġended": 3719,
      "Ġprov": 3720,
      "Ġpeered": 3721,
      "Ġhonored": 3722,
      "Ġrivers": 3723,
      "Ġbringing": 3724,
      "Ġcarefully": 3725,
      "oint": 3726,
      "Ġsafely": 3727,
      "Ġsitting": 3728,
      "ĠMollen": 3729,
      "Ġcompan": 3730,
      "Ġperf": 3731,
      "Ġperm": 3732,
      "Ġwheel": 3733,
      "Ġattend": 3734,
      "Ġawa": 3735,
      "Ġthirty": 3736,
      "Ġtightly": 3737,
      "Ġrefused": 3738,
      "ĠMarq": 3739,
      "ĠHighgarden": 3740,
      "Ġclothing": 3741,
      "Ġgaunt": 3742,
      "ĠShaggy": 3743,
      "Ġsquires": 3744,
      "Ġmusic": 3745,
      "Ġstrike": 3746,
      "Ġholdfasts": 3747,
      "Ġgathered": 3748,
      "ĠMountain": 3749,
      "Ġcourtesy": 3750,
      "Ġcourtesies": 3751,
      "Ġcomplained": 3752,
      "Ġfamily": 3753,
      "Ġcurious": 3754,
      "Ġspoken": 3755,
      "Ġjerked": 3756,
      "Ġcolumn": 3757,
      "ĠDarry": 3758,
      "Ġsplendid": 3759,
      "Ġgifts": 3760,
      "Ġbrazier": 3761,
      "Ġportcullis": 3762,
      "Ġsolemn": 3763,
      "ĠProtector": 3764,
      "Stop": 3765,
      "At": 3766,
      "Mother": 3767,
      "bble": 3768,
      "boy": 3769,
      "con": 3770,
      "dog": 3771,
      "ives": 3772,
      "ler": 3773,
      "mers": 3774,
      "uries": 3775,
      "wh": 3776,
      "Ġsen": 3777,
      "Ġsac": 3778,
      "Ġsiege": 3779,
      "Ġwit": 3780,
      "Ġbent": 3781,
      "Ġbounded": 3782,
      "Ġow": 3783,
      "Ġodd": 3784,
      "Ġfed": 3785,
      "Ġfare": 3786,
      "Ġfig": 3787,
      "Ġfail": 3788,
      "Ġmed": 3789,
      "Ġmiser": 3790,
      "Ġcust": 3791,
      "Ġcush": 3792,
      "arm": 3793,
      "aned": 3794,
      "Ġdus": 3795,
      "Ġdish": 3796,
      "asping": 3797,
      "Ġthunder": 3798,
      "Ġyanked": 3799,
      "ĠShae": 3800,
      "ĠIce": 3801,
      "Ġstol": 3802,
      "Ġasking": 3803,
      "ute": 3804,
      "Ġshot": 3805,
      "ĠCity": 3806,
      "unk": 3807,
      "Ġlemon": 3808,
      "Ġclums": 3809,
      "Ġnephe": 3810,
      "quer": 3811,
      "Ġseed": 3812,
      "Ġupward": 3813,
      "ĠGive": 3814,
      "Ġbrood": 3815,
      "Ġvall": 3816,
      "anned": 3817,
      "Ġspell": 3818,
      "Ġbacked": 3819,
      "ggen": 3820,
      "Ġscow": 3821,
      "Ġflung": 3822,
      "Ġtwin": 3823,
      "Ġripp": 3824,
      "Ġmoist": 3825,
      "Ġthoughtfully": 3826,
      "Ġamid": 3827,
      "Ġtrad": 3828,
      "Ġsteal": 3829,
      "Ġworth": 3830,
      "Ġgreatsword": 3831,
      "ures": 3832,
      "Ġwaved": 3833,
      "Ġends": 3834,
      "Ġkeeping": 3835,
      "Ġtreason": 3836,
      "Ġstuff": 3837,
      "Ġsentin": 3838,
      "Ġcurse": 3839,
      "Ġfolly": 3840,
      "Ġsquir": 3841,
      "Ġpulling": 3842,
      "Ġthousands": 3843,
      "Ġhundreds": 3844,
      "Ġcourty": 3845,
      "Ġruin": 3846,
      "headed": 3847,
      "Ġclimbing": 3848,
      "Ġinstru": 3849,
      "Ġstraw": 3850,
      "Ġwarmth": 3851,
      "Ġbecame": 3852,
      "Ġpups": 3853,
      "Ġtemp": 3854,
      "ĠTomard": 3855,
      "Ġplaying": 3856,
      "Ġcorpses": 3857,
      "Ġcaptive": 3858,
      "Ġmailed": 3859,
      "ĠAfterward": 3860,
      "Ġrisk": 3861,
      "ĠQueen": 3862,
      "Ġlanded": 3863,
      "Ġrolling": 3864,
      "form": 3865,
      "Ġblew": 3866,
      "Ġinterest": 3867,
      "Ġanxiously": 3868,
      "Ġcontin": 3869,
      "Ġexplained": 3870,
      "Ġwarrior": 3871,
      "Ġringmail": 3872,
      "Ġcroo": 3873,
      "Ġstranger": 3874,
      "Ġpigeon": 3875,
      "Ġdeny": 3876,
      "Ġsuggested": 3877,
      "Ġcrypts": 3878,
      "ĠMycah": 3879,
      "Ġview": 3880,
      "ĠHarrenhal": 3881,
      "ĠChiggen": 3882,
      "Ġnephew": 3883,
      "Bring": 3884,
      "DD": 3885,
      "Just": 3886,
      "OR": 3887,
      "Our": 3888,
      "RY": 3889,
      "bor": 3890,
      "bly": 3891,
      "bone": 3892,
      "bod": 3893,
      "cross": 3894,
      "father": 3895,
      "fish": 3896,
      "ky": 3897,
      "oat": 3898,
      "oys": 3899,
      "pen": 3900,
      "wling": 3901,
      "wife": 3902,
      "work": 3903,
      "zed": 3904,
      "Ġest": 3905,
      "Ġtables": 3906,
      "Ġale": 3907,
      "Ġsang": 3908,
      "oust": 3909,
      "ouched": 3910,
      "Ġbase": 3911,
      "rets": 3912,
      "Ġfer": 3913,
      "Ġfault": 3914,
      "Ġheight": 3915,
      "Ġmood": 3916,
      "Ġmules": 3917,
      "orse": 3918,
      "ories": 3919,
      "Ġcage": 3920,
      "lla": 3921,
      "lly": 3922,
      "Ġlim": 3923,
      "Ġlances": 3924,
      "Ġda": 3925,
      "Ġdim": 3926,
      "Ġdull": 3927,
      "asy": 3928,
      "Ġgor": 3929,
      "ĠTong": 3930,
      "Ġpet": 3931,
      "Ġpun": 3932,
      "Ġpace": 3933,
      "Ġpled": 3934,
      "Ġpau": 3935,
      "Ġpatter": 3936,
      "Ġbegged": 3937,
      "Ġstare": 3938,
      "Ġstrid": 3939,
      "Ġsake": 3940,
      "term": 3941,
      "Ġhaunted": 3942,
      "irt": 3943,
      "ĠLong": 3944,
      "Ġnotion": 3945,
      "ĠAdd": 3946,
      "ĠAcross": 3947,
      "ayon": 3948,
      "ĠJyck": 3949,
      "ĠWould": 3950,
      "ĠWell": 3951,
      "ĠWarden": 3952,
      "ĠRaym": 3953,
      "Ġmele": 3954,
      "ĠDorne": 3955,
      "ĠCat": 3956,
      "Ġgoes": 3957,
      "venge": 3958,
      "Ġsever": 3959,
      "Ġroot": 3960,
      "Ġroaring": 3961,
      "ession": 3962,
      "Ġval": 3963,
      "Ġvest": 3964,
      "Ġspin": 3965,
      "Ġsmashed": 3966,
      "Ġsmiles": 3967,
      "Ġdep": 3968,
      "rown": 3969,
      "estor": 3970,
      "Ġsuck": 3971,
      "Ġunb": 3972,
      "Ġgreet": 3973,
      "ĠPlease": 3974,
      "ĠPiper": 3975,
      "Ġflushed": 3976,
      "ĠOgo": 3977,
      "ĠEDD": 3978,
      "Ġjoust": 3979,
      "ullen": 3980,
      "Ġoverhead": 3981,
      "ĠVayon": 3982,
      "Ġlooming": 3983,
      "estern": 3984,
      "ulous": 3985,
      "Ġglow": 3986,
      "Ġwarh": 3987,
      "Ġwarn": 3988,
      "goy": 3989,
      "Ġfoe": 3990,
      "swood": 3991,
      "Ġneedle": 3992,
      "Ġbegun": 3993,
      "Ġhugged": 3994,
      "Ġtakes": 3995,
      "izz": 3996,
      "unged": 3997,
      "Ġtreas": 3998,
      "Ġfealty": 3999,
      "Ġcurled": 4000,
      "Ġmarching": 4001,
      "Ġdreamt": 4002,
      "Ġdreamed": 4003,
      "Ġdesp": 4004,
      "Ġguardsman": 4005,
      "Ġhalls": 4006,
      "Ġbattlements": 4007,
      "Ġcape": 4008,
      "Ġcouncill": 4009,
      "ĠSepton": 4010,
      "Ġbrush": 4011,
      "ointed": 4012,
      "Ġeasier": 4013,
      "ĠWillis": 4014,
      "Ġsending": 4015,
      "ĠCommon": 4016,
      "Ġresp": 4017,
      "Ġbodies": 4018,
      "Ġlarger": 4019,
      "lords": 4020,
      "Ġgargoy": 4021,
      "Ġgrinning": 4022,
      "Ġesca": 4023,
      "Ġsellswords": 4024,
      "Ġdirk": 4025,
      "Ġpiece": 4026,
      "Ġrelief": 4027,
      "Ġcarrying": 4028,
      "Ġmadness": 4029,
      "Ġshivered": 4030,
      "Ġsplit": 4031,
      "Robb": 4032,
      "Ġswallowed": 4033,
      "ĠRemember": 4034,
      "Ġsmooth": 4035,
      "Ġpolished": 4036,
      "Ġstirred": 4037,
      "Ġnervously": 4038,
      "ĠSomething": 4039,
      "Ġdeserted": 4040,
      "Ġtrotted": 4041,
      "Ġwiped": 4042,
      "Ġpleaded": 4043,
      "Ġshape": 4044,
      "Ġeagerly": 4045,
      "ARD": 4046,
      "Ġtangled": 4047,
      "Ġpractice": 4048,
      "Ġsuspiciously": 4049,
      "helm": 4050,
      "ĠConn": 4051,
      "Ġpardons": 4052,
      "Ġsniffed": 4053,
      "Ġthighs": 4054,
      "claimed": 4055,
      "Ġcenturies": 4056,
      "ĠOutside": 4057,
      "Ġsimple": 4058,
      "Ġfetch": 4059,
      "Ġcounsel": 4060,
      "Ġshifted": 4061,
      "ĠDesmond": 4062,
      "ĠTHRON": 4063,
      "Ġwrote": 4064,
      "Ġcripp": 4065,
      "ĠWyl": 4066,
      "Ġinnocent": 4067,
      "ĠRakharo": 4068,
      "Ġafternoon": 4069,
      "Ġexchanged": 4070,
      "ĠShaggydog": 4071,
      "Ġmedall": 4072,
      "Ġdusk": 4073,
      "Ġstolen": 4074,
      "ĠTongue": 4075,
      "ĠRaymun": 4076,
      "ĠEDDARD": 4077,
      ".,,": 4078,
      "AN": 4079,
      "Bran": 4080,
      "Khaleesi": 4081,
      "OO": 4082,
      "Yet": 4083,
      "br": 4084,
      "bt": 4085,
      "bre": 4086,
      "car": 4087,
      "ian": 4088,
      "kins": 4089,
      "mel": 4090,
      "ollen": 4091,
      "wise": 4092,
      "wyne": 4093,
      "yk": 4094,
      "Ġtimb": 4095,
      "Ġtasted": 4096,
      "Ġsore": 4097,
      "Ġsingers": 4098,
      "Ġwand": 4099,
      "Ġworn": 4100,
      "eren": 4101,
      "Ġball": 4102,
      "Ġbark": 4103,
      "Ġfun": 4104,
      "Ġmention": 4105,
      "oring": 4106,
      "Ġcost": 4107,
      "Ġcats": 4108,
      "atu": 4109,
      "ene": 4110,
      "Ġtomb": 4111,
      "Ġdru": 4112,
      "Ġdamp": 4113,
      "Ġnine": 4114,
      "Ġgasped": 4115,
      "ĠToo": 4116,
      "Ġpy": 4117,
      "Ġpack": 4118,
      "Ġpav": 4119,
      "immed": 4120,
      "otion": 4121,
      "Ġsteep": 4122,
      "Ġstony": 4123,
      "Ġstern": 4124,
      "Ġsail": 4125,
      "Ġsalt": 4126,
      "tern": 4127,
      "Ġkhale": 4128,
      "rily": 4129,
      "irm": 4130,
      "Ġforge": 4131,
      "Ġshel": 4132,
      "Ġsheath": 4133,
      "ayed": 4134,
      "eeps": 4135,
      "Ġrear": 4136,
      "Ġreined": 4137,
      "urred": 4138,
      "ĠBrack": 4139,
      "ĠJust": 4140,
      "ented": 4141,
      "ĠWend": 4142,
      "Ġracing": 4143,
      "ĠDanc": 4144,
      "chs": 4145,
      "Ġdosh": 4146,
      "Ġnod": 4147,
      "Ġswollen": 4148,
      "Ġclad": 4149,
      "Ġclung": 4150,
      "Ġchuck": 4151,
      "Ġroast": 4152,
      "Ġrobe": 4153,
      "ĠGAM": 4154,
      "Ġspare": 4155,
      "Ġspend": 4156,
      "elve": 4157,
      "eless": 4158,
      "Ġboot": 4159,
      "Ġwhenever": 4160,
      "though": 4161,
      "rupt": 4162,
      "ĠFear": 4163,
      "Ġunless": 4164,
      "Ġflight": 4165,
      "Ġcomb": 4166,
      "ĠIts": 4167,
      "Ġplu": 4168,
      "Ġjew": 4169,
      "Ġarmies": 4170,
      "Ġribs": 4171,
      "Ġloves": 4172,
      "Ġlogs": 4173,
      "Ġloomed": 4174,
      "ively": 4175,
      "Ġthoughts": 4176,
      "Ġhopped": 4177,
      "Ġhollow": 4178,
      "Ġfold": 4179,
      "umble": 4180,
      "Ġbreaking": 4181,
      "Ġanyway": 4182,
      "Ġneedles": 4183,
      "Ġwinds": 4184,
      "urely": 4185,
      "ĠThose": 4186,
      "ancing": 4187,
      "Ġcontempt": 4188,
      "Ġprep": 4189,
      "aider": 4190,
      "Ġproof": 4191,
      "Ġbuy": 4192,
      "Ġbund": 4193,
      "Ġsatin": 4194,
      "Ġsunlight": 4195,
      "ĠArryns": 4196,
      "Ġheavily": 4197,
      "Ġshouts": 4198,
      "Ġfever": 4199,
      "ĠNoye": 4200,
      "Ġmarble": 4201,
      "Ġmaybe": 4202,
      "ĠUnder": 4203,
      "Ġlovely": 4204,
      "Ġdoesn": 4205,
      "Ġscarlet": 4206,
      "Ġhappening": 4207,
      "Ġclever": 4208,
      "Ġfilling": 4209,
      "Ġbirth": 4210,
      "Ġfootste": 4211,
      "Ġdrifted": 4212,
      "Ġfrighten": 4213,
      "Ġthread": 4214,
      "ĠTooth": 4215,
      "Ġsupper": 4216,
      "Ġstrap": 4217,
      "Ġmiles": 4218,
      "Ġimport": 4219,
      "Ġcompre": 4220,
      "Ġfastened": 4221,
      "ĠBlackwood": 4222,
      "ĠBlackfish": 4223,
      "Ġbeauty": 4224,
      "ĠRedwyne": 4225,
      "Ġbrig": 4226,
      "omeday": 4227,
      "Ġfrowning": 4228,
      "ĠWhatever": 4229,
      "Ġquestions": 4230,
      "Ġwrite": 4231,
      "ĠBaelor": 4232,
      "ĠQuaro": 4233,
      "Ġescorted": 4234,
      "Ġfiercely": 4235,
      "Ġshocked": 4236,
      "ĠSword": 4237,
      "Ġfortun": 4238,
      "Ġsearching": 4239,
      "Ġembro": 4240,
      "Ġshivering": 4241,
      "Ġstreet": 4242,
      "Ġobser": 4243,
      "Ġmiddle": 4244,
      "Ġbooks": 4245,
      "Ġgloves": 4246,
      "Ġhideous": 4247,
      "Ġdrunken": 4248,
      "Ġweapon": 4249,
      "Ġwives": 4250,
      "Ġstubbornly": 4251,
      "Ġmarket": 4252,
      "Ġshrieked": 4253,
      "Ġsandsil": 4254,
      "Ġcoward": 4255,
      "ĠMoreo": 4256,
      "Ġsnarling": 4257,
      "Ġdangerous": 4258,
      "Ġfalse": 4259,
      "Ġlurched": 4260,
      "Ġblurted": 4261,
      "Ġspikes": 4262,
      "Ġprisoner": 4263,
      "Ġcrunched": 4264,
      "Ġsummoned": 4265,
      "ĠBalon": 4266,
      "Ġfruit": 4267,
      "Ġvaulted": 4268,
      "ĠFreys": 4269,
      "Ġfarewell": 4270,
      "Ġcustom": 4271,
      "Ġvalley": 4272,
      "Ġmelee": 4273,
      "Ġpavil": 4274,
      "Ġkhaleen": 4275,
      "ĠDancer": 4276,
      "Ġfootsteps": 4277,
      "An": 4278,
      "Get": 4279,
      "IN": 4280,
      "Kill": 4281,
      "With": 4282,
      "axe": 4283,
      "coat": 4284,
      "ef": 4285,
      "ik": 4286,
      "ient": 4287,
      "iers": 4288,
      "iven": 4289,
      "je": 4290,
      "mble": 4291,
      "not": 4292,
      "year": 4293,
      "hend": 4294,
      "Ġtap": 4295,
      "Ġtale": 4296,
      "inked": 4297,
      "Ġhon": 4298,
      "Ġhound": 4299,
      "Ġopp": 4300,
      "ishing": 4301,
      "Ġmummer": 4302,
      "Ġcree": 4303,
      "Ġcron": 4304,
      "Ġcase": 4305,
      "Ġcask": 4306,
      "ength": 4307,
      "lled": 4308,
      "Ġlimb": 4309,
      "ition": 4310,
      "Ġdizz": 4311,
      "asons": 4312,
      "Ġnipp": 4313,
      "rochs": 4314,
      "Ġgle": 4315,
      "Ġgaz": 4316,
      "Ġgash": 4317,
      "idly": 4318,
      "Ġpick": 4319,
      "Ġpounding": 4320,
      "Ġinf": 4321,
      "Ġwash": 4322,
      "ĠHun": 4323,
      "ĠHullen": 4324,
      "ĠHaider": 4325,
      "Ġeld": 4326,
      "rier": 4327,
      "sted": 4328,
      "stars": 4329,
      "irts": 4330,
      "Ġnote": 4331,
      "Ġshake": 4332,
      "Ġshiny": 4333,
      "eech": 4334,
      "ĠBurned": 4335,
      "ĠRast": 4336,
      "iliar": 4337,
      "ĠMand": 4338,
      "ĠMany": 4339,
      "ĠMAR": 4340,
      "ĠNestor": 4341,
      "ĠCor": 4342,
      "ĠCan": 4343,
      "untle": 4344,
      "Ġlied": 4345,
      "Ġlibr": 4346,
      "Ġsweep": 4347,
      "Ġswinging": 4348,
      "ppers": 4349,
      "Ġgod": 4350,
      "Ġsewn": 4351,
      "Ġrow": 4352,
      "Ġvowed": 4353,
      "Ġdeterm": 4354,
      "Ġsus": 4355,
      "Ġunl": 4356,
      "Ġunt": 4357,
      "Ġscru": 4358,
      "Ġflut": 4359,
      "Ġplains": 4360,
      "Ġslit": 4361,
      "Ġslain": 4362,
      "Ġslick": 4363,
      "ddy": 4364,
      "areon": 4365,
      "Ġmoat": 4366,
      "Ġraz": 4367,
      "Ġwoven": 4368,
      "Ġgrunted": 4369,
      "Ġgrasp": 4370,
      "Ġglit": 4371,
      "Ġsnake": 4372,
      "Ġhowled": 4373,
      "Ġhowever": 4374,
      "Ġgodswife": 4375,
      "Ġexcept": 4376,
      "Ġcrad": 4377,
      "attering": 4378,
      "Ġguarded": 4379,
      "Ġprot": 4380,
      "Ġkilling": 4381,
      "Ġhonorable": 4382,
      "Ġcastles": 4383,
      "Ġcrowded": 4384,
      "Ġheartbe": 4385,
      "Ġfollowing": 4386,
      "ridge": 4387,
      "Ġsurcoat": 4388,
      "Ġrubbed": 4389,
      "Ġsadd": 4390,
      "Ġlists": 4391,
      "Ġspeci": 4392,
      "Ġpointing": 4393,
      "Ġforehead": 4394,
      "Ġleathers": 4395,
      "Ġcups": 4396,
      "Does": 4397,
      "Ġdrift": 4398,
      "Ġdripped": 4399,
      "Ġfurs": 4400,
      "Ġfools": 4401,
      "Ġgalley": 4402,
      "Ġterror": 4403,
      "Ġletters": 4404,
      "Ġwildly": 4405,
      "rinkled": 4406,
      "Ġleaning": 4407,
      "Ġbabe": 4408,
      "Ġeating": 4409,
      "Ġaccust": 4410,
      "Ġprayed": 4411,
      "Ġterrif": 4412,
      "Ġeunuchs": 4413,
      "Ġsixteen": 4414,
      "Ġladies": 4415,
      "Ġgauntle": 4416,
      "Ġdeliver": 4417,
      "Ġpretend": 4418,
      "ĠHarwin": 4419,
      "Ġapol": 4420,
      "Ġwager": 4421,
      "Ġbuildings": 4422,
      "Ġcharged": 4423,
      "Ġwhores": 4424,
      "ĠHallis": 4425,
      "Ġfaintly": 4426,
      "Ġdancer": 4427,
      "Ġthrown": 4428,
      "Ġsavage": 4429,
      "atures": 4430,
      "Ġhuman": 4431,
      "oooooooo": 4432,
      "Ġgladly": 4433,
      "Ġfrag": 4434,
      "zzled": 4435,
      "Ġuncertainly": 4436,
      "Ġcircled": 4437,
      "Ġemerged": 4438,
      "ĠBrothers": 4439,
      "Ġrubies": 4440,
      "Ġdescended": 4441,
      "Ġuncomfortable": 4442,
      "Ġperson": 4443,
      "Ġfaith": 4444,
      "Ġheroes": 4445,
      "Ġnurse": 4446,
      "Ġbrothel": 4447,
      "ĠTyroshi": 4448,
      "strous": 4449,
      "Ġmerchant": 4450,
      "white": 4451,
      "Ġsacred": 4452,
      "Ġsentinel": 4453,
      "Ġcrooked": 4454,
      "ORG": 4455,
      "Ġpaused": 4456,
      "ĠAddam": 4457,
      "atura": 4458,
      "Ġpyre": 4459,
      "Ġcomprehend": 4460,
      "Ġembroidered": 4461,
      "Ġsandsilk": 4462,
      "Ġcrones": 4463,
      "Ġlibrary": 4464,
      "Ġheartbeat": 4465,
      "Bl": 4466,
      "Give": 4467,
      "Jo": 4468,
      "One": 4469,
      "Sansa": 4470,
      "Wh": 4471,
      "cass": 4472,
      "em": 4473,
      "fft": 4474,
      "harp": 4475,
      "iest": 4476,
      "ience": 4477,
      "ker": 4478,
      "nate": 4479,
      "nough": 4480,
      "ode": 4481,
      "rust": 4482,
      "uct": 4483,
      "yet": 4484,
      "Ġver": 4485,
      "Ġutter": 4486,
      "Ġtit": 4487,
      "Ġtill": 4488,
      "Ġsoul": 4489,
      "Ġhack": 4490,
      "Ġhaste": 4491,
      "Ġbore": 4492,
      "Ġbull": 4493,
      "Ġoiled": 4494,
      "rec": 4495,
      "Ġfixed": 4496,
      "Ġheel": 4497,
      "Ġhedge": 4498,
      "Ġmin": 4499,
      "Ġcakes": 4500,
      "Ġcities": 4501,
      "Ġlot": 4502,
      "Ġlamb": 4503,
      "Ġlength": 4504,
      "Ġdisp": 4505,
      "Ġnice": 4506,
      "Ġgut": 4507,
      "Ġgasp": 4508,
      "ĠTake": 4509,
      "Ġpink": 4510,
      "Ġinde": 4511,
      "lemon": 4512,
      "ĠHold": 4513,
      "Ġsaus": 4514,
      "Ġasse": 4515,
      "Ġaston": 4516,
      "veled": 4517,
      "riage": 4518,
      "Ġhau": 4519,
      "Ġhaving": 4520,
      "ution": 4521,
      "vern": 4522,
      "Ġnoted": 4523,
      "arded": 4524,
      "Ġshri": 4525,
      "Ġships": 4526,
      "Ġreward": 4527,
      "Ġreally": 4528,
      "Ġreading": 4529,
      "ĠBes": 4530,
      "Ġrushing": 4531,
      "ĠMaybe": 4532,
      "Ġblows": 4533,
      "Ġblunt": 4534,
      "Ġblinked": 4535,
      "ĠDamn": 4536,
      "ĠDareon": 4537,
      "ĠCh": 4538,
      "ĠCayn": 4539,
      "Ġsoaked": 4540,
      "Ġlions": 4541,
      "Ġlicked": 4542,
      "Ġmanner": 4543,
      "Ġchos": 4544,
      "Ġchased": 4545,
      "Ġalleys": 4546,
      "ateful": 4547,
      "Ġvow": 4548,
      "Ġspeech": 4549,
      "Ġhandful": 4550,
      "isters": 4551,
      "Ġdeft": 4552,
      "ĠStev": 4553,
      "Ġalthough": 4554,
      "Ġagony": 4555,
      "Ġscales": 4556,
      "Ġflin": 4557,
      "Ġflies": 4558,
      "Ġoffice": 4559,
      "Ġplan": 4560,
      "Ġornate": 4561,
      "Ġslight": 4562,
      "Ġslave": 4563,
      "ddled": 4564,
      "mber": 4565,
      "Ġarmed": 4566,
      "using": 4567,
      "arest": 4568,
      "Ġtwelve": 4569,
      "Ġrap": 4570,
      "Ġbrist": 4571,
      "Ġsomewhere": 4572,
      "Ġwarily": 4573,
      "Ġposs": 4574,
      "Ġposit": 4575,
      "Ġsnows": 4576,
      "Ġdragged": 4577,
      "Ġanywhere": 4578,
      "ĠAndals": 4579,
      "Ġsteady": 4580,
      "ĠJofft": 4581,
      "Ġtells": 4582,
      "apes": 4583,
      "Ġwoodharp": 4584,
      "Ġcommander": 4585,
      "Ġsmaller": 4586,
      "Ġours": 4587,
      "Ġcarcass": 4588,
      "ĠMorrec": 4589,
      "Ġgiants": 4590,
      "Ġrestless": 4591,
      "Ġrooms": 4592,
      "Ġretain": 4593,
      "ĠGreen": 4594,
      "agged": 4595,
      "Ġcurses": 4596,
      "Ġwolfswood": 4597,
      "Three": 4598,
      "Ġgrowled": 4599,
      "Ġsquee": 4600,
      "Ġcutting": 4601,
      "Ġtrailed": 4602,
      "Ġtravel": 4603,
      "Ġtraining": 4604,
      "Ġmarried": 4605,
      "Ġsadly": 4606,
      "Ġsecrets": 4607,
      "Ġreaching": 4608,
      "Ġfinest": 4609,
      "awed": 4610,
      "Ġbiting": 4611,
      "Ġcryst": 4612,
      "Ġcareful": 4613,
      "Ġdriving": 4614,
      "Ġforgiven": 4615,
      "Ġkindness": 4616,
      "Ġsmells": 4617,
      "Ġsits": 4618,
      "Ġstrapped": 4619,
      "Ġgrasses": 4620,
      "Ġimpati": 4621,
      "Ġwildlings": 4622,
      "Ġwheeled": 4623,
      "Ġstruggling": 4624,
      "Ġbarefoot": 4625,
      "ĠNever": 4626,
      "Ġeaten": 4627,
      "Ġplayed": 4628,
      "Ġflee": 4629,
      "Ġvisited": 4630,
      "Ġprayers": 4631,
      "Ġtumbled": 4632,
      "ĠBefore": 4633,
      "Ġbrusque": 4634,
      "Ġadmit": 4635,
      "Ġsearch": 4636,
      "Ġmusc": 4637,
      "Ġgatehouse": 4638,
      "Ġdrawb": 4639,
      "Ġdrawing": 4640,
      "Ġhealing": 4641,
      "Ġwisdom": 4642,
      "ĠRealm": 4643,
      "Ġcircle": 4644,
      "ĠChella": 4645,
      "Ġbeginning": 4646,
      "Ġgathering": 4647,
      "Ġstiffly": 4648,
      "Ġsavages": 4649,
      "Ġpresent": 4650,
      "Ġgrandfather": 4651,
      "ĠColemon": 4652,
      "Ġbalance": 4653,
      "Ġmonstrous": 4654,
      "Ġsprawled": 4655,
      "Ġpatience": 4656,
      "Ġappeared": 4657,
      "Ġcalmly": 4658,
      "Ġleaping": 4659,
      "Ġurgent": 4660,
      "Ġquarrels": 4661,
      "Ġsolemnly": 4662,
      "Ġcushions": 4663,
      "Ġamidst": 4664,
      "Ġcourtyard": 4665,
      "body": 4666,
      "Ġgorget": 4667,
      "Ġstriding": 4668,
      "Ġspinning": 4669,
      "Ġchuckled": 4670,
      "Ġspecial": 4671,
      "Ġaccustomed": 4672,
      "Ġchosen": 4673,
      "ĠStevron": 4674,
      "ĠJofftey": 4675,
      "AT": 4676,
      "Damn": 4677,
      "EL": 4678,
      "May": 4679,
      "Make": 4680,
      "NE": 4681,
      "Nor": 4682,
      "Nothing": 4683,
      "Or": 4684,
      "Se": 4685,
      "Sw": 4686,
      "Send": 4687,
      "Winter": 4688,
      "YN": 4689,
      "bar": 4690,
      "bart": 4691,
      "cting": 4692,
      "face": 4693,
      "more": 4694,
      "obb": 4695,
      "shed": 4696,
      "uit": 4697,
      "Ġtran": 4698,
      "Ġsin": 4699,
      "Ġsomeday": 4700,
      "Ġwiz": 4701,
      "Ġwinc": 4702,
      "ination": 4703,
      "eds": 4704,
      "Ġbank": 4705,
      "Ġbask": 4706,
      "rel": 4707,
      "Ġfut": 4708,
      "Ġfab": 4709,
      "Ġfaced": 4710,
      "Ġcam": 4711,
      "onet": 4712,
      "Ġlan": 4713,
      "Ġlap": 4714,
      "iting": 4715,
      "Ġdear": 4716,
      "Ġnin": 4717,
      "Ġgran": 4718,
      "ĠTown": 4719,
      "Ġyester": 4720,
      "Ġyank": 4721,
      "Ġyawn": 4722,
      "Ġpow": 4723,
      "Ġpom": 4724,
      "Ġind": 4725,
      "ley": 4726,
      "Ġstink": 4727,
      "ĠHad": 4728,
      "Ġsaf": 4729,
      "Ġsal": 4730,
      "Ġsaved": 4731,
      "Ġashes": 4732,
      "Ġasleep": 4733,
      "Ġken": 4734,
      "ric": 4735,
      "stained": 4736,
      "ĠLast": 4737,
      "ĠLion": 4738,
      "ĠLamb": 4739,
      "Ġshim": 4740,
      "allen": 4741,
      "Ġreb": 4742,
      "ury": 4743,
      "ĠBeyond": 4744,
      "ammer": 4745,
      "ĠWest": 4746,
      "albart": 4747,
      "Ġraced": 4748,
      "ific": 4749,
      "Ġmead": 4750,
      "Ġmelted": 4751,
      "ĠNothing": 4752,
      "ĠCould": 4753,
      "ĠCAT": 4754,
      "Ġsobbing": 4755,
      "Ġswing": 4756,
      "Ġswell": 4757,
      "Ġarrange": 4758,
      "Ġclang": 4759,
      "Ġwilling": 4760,
      "Ġseek": 4761,
      "Ġoutrid": 4762,
      "rance": 4763,
      "ĠGold": 4764,
      "ĠGalbart": 4765,
      "geons": 4766,
      "Ġvile": 4767,
      "Ġspurred": 4768,
      "eling": 4769,
      "Ġsmith": 4770,
      "Ġdev": 4771,
      "ĠStew": 4772,
      "ĠStiv": 4773,
      "ĠFar": 4774,
      "ĠFle": 4775,
      "Ġaloud": 4776,
      "ickon": 4777,
      "Ġkingdoms": 4778,
      "Ġscars": 4779,
      "Ġplans": 4780,
      "Ġjest": 4781,
      "Ġjoy": 4782,
      "Ġfathered": 4783,
      "Ġhoriz": 4784,
      "Ġthrones": 4785,
      "icing": 4786,
      "Ġmoons": 4787,
      "Ġabs": 4788,
      "Ġaband": 4789,
      "Ġgrac": 4790,
      "Ġeng": 4791,
      "Ġenjoy": 4792,
      "Ġhoarse": 4793,
      "Ġshouldn": 4794,
      "Ġevenfall": 4795,
      "Ġglared": 4796,
      "Ġwarning": 4797,
      "Ġwarhor": 4798,
      "Ġtrade": 4799,
      "Ġpock": 4800,
      "Ġbetrot": 4801,
      "Ġdraped": 4802,
      "Ġhelms": 4803,
      "neath": 4804,
      "Ġstead": 4805,
      "Ġwomb": 4806,
      "Ġchew": 4807,
      "Ġslew": 4808,
      "Ġprinc": 4809,
      "Ġbenches": 4810,
      "Ġrights": 4811,
      "Ġtrembled": 4812,
      "Ġyoungest": 4813,
      "Ġstumbling": 4814,
      "Ġwhispers": 4815,
      "Ġwhispering": 4816,
      "Ġretre": 4817,
      "Ġmarched": 4818,
      "Ġmarriage": 4819,
      "ails": 4820,
      "oler": 4821,
      "Ġdreaming": 4822,
      "Ġgetting": 4823,
      "rayed": 4824,
      "woods": 4825,
      "Ġsetting": 4826,
      "Ġhurry": 4827,
      "Ġrank": 4828,
      "Ġsouthron": 4829,
      "Ġscarred": 4830,
      "Ġhappy": 4831,
      "Ġcrossroad": 4832,
      "Ġfourth": 4833,
      "Ġbruise": 4834,
      "rief": 4835,
      "Ġdripping": 4836,
      "Ġhelmet": 4837,
      "Ġburnt": 4838,
      "Ġinsist": 4839,
      "Ġdistur": 4840,
      "Ġcomple": 4841,
      "Ġsliding": 4842,
      "Ġattacked": 4843,
      "Ġshields": 4844,
      "Ġdifference": 4845,
      "Ġrocks": 4846,
      "Ġrocky": 4847,
      "Ġstayed": 4848,
      "Ġcorre": 4849,
      "Ġmuttering": 4850,
      "Ġpriv": 4851,
      "ĠRhaego": 4852,
      "Ġtugged": 4853,
      "Ġliege": 4854,
      "Ġmists": 4855,
      "Ġconsent": 4856,
      "Ġgaoler": 4857,
      "Ġintent": 4858,
      "ĠSworn": 4859,
      "Ġbloodrider": 4860,
      "Ġmuscle": 4861,
      "Ġsolid": 4862,
      "Ġcolla": 4863,
      "Ġeighteen": 4864,
      "overed": 4865,
      "Ġparted": 4866,
      "Ġmidday": 4867,
      "Ġbeasts": 4868,
      "Ġanimals": 4869,
      "Ġgloom": 4870,
      "Ġstableboy": 4871,
      "Ġfamiliar": 4872,
      "Ġexcited": 4873,
      "Ġlinen": 4874,
      "Ġlines": 4875,
      "Ġmelting": 4876,
      "Ġflickering": 4877,
      "Ġfeathers": 4878,
      "Ġghosts": 4879,
      "ĠMaegor": 4880,
      "Ġbucket": 4881,
      "Ġreflected": 4882,
      "Ġdelicate": 4883,
      "Ġkicking": 4884,
      "Ġshuddered": 4885,
      "Ġorders": 4886,
      "Ġcompanions": 4887,
      "Ġwheelhouse": 4888,
      "Ġdishonor": 4889,
      "Ġclumsy": 4890,
      "Ġcontinued": 4891,
      "Ġobserved": 4892,
      "Ġcreeping": 4893,
      "ĠHunter": 4894,
      "ĠMART": 4895,
      "Ġdetermined": 4896,
      "Ġrazor": 4897,
      "Joff": 4898,
      "Ġindeed": 4899,
      "Ġdrawbridge": 4900,
      "ELYN": 4901,
      "Ġpommel": 4902,
      "ĠCATELYN": 4903,
      "Ġhorizon": 4904,
      "Ġbetrothed": 4905,
      "Ġcrossroads": 4906,
      ",'": 4907,
      "Drink": 4908,
      "Keep": 4909,
      "LS": 4910,
      "Lann": 4911,
      "Most": 4912,
      "Maester": 4913,
      "Pr": 4914,
      "Sh": 4915,
      "Very": 4916,
      "back": 4917,
      "cing": 4918,
      "eal": 4919,
      "fles": 4920,
      "ging": 4921,
      "ior": 4922,
      "ipping": 4923,
      "keep": 4924,
      "lest": 4925,
      "min": 4926,
      "nific": 4927,
      "par": 4928,
      "scent": 4929,
      "tling": 4930,
      "wine": 4931,
      "watch": 4932,
      "water": 4933,
      "xed": 4934,
      "yed": 4935,
      "Ġere": 4936,
      "Ġtim": 4937,
      "Ġtied": 4938,
      "Ġsinging": 4939,
      "Ġsorrow": 4940,
      "Ġwing": 4941,
      "Ġwid": 4942,
      "Ġwicked": 4943,
      "Ġweek": 4944,
      "Ġwrinkled": 4945,
      "Ġhacked": 4946,
      "Ġbay": 4947,
      "Ġbrief": 4948,
      "Ġobs": 4949,
      "rew": 4950,
      "reet": 4951,
      "Ġfacing": 4952,
      "Ġfirm": 4953,
      "Ġce": 4954,
      "Ġcran": 4955,
      "Ġcart": 4956,
      "Ġcream": 4957,
      "ener": 4958,
      "enched": 4959,
      "Ġ\".": 4960,
      "lling": 4961,
      "Ġlone": 4962,
      "Ġlinger": 4963,
      "Ġlaz": 4964,
      "Ġlined": 4965,
      "Ġlamp": 4966,
      "Ġlingered": 4967,
      "aning": 4968,
      "asing": 4969,
      "asha": 4970,
      "lding": 4971,
      "Ġgn": 4972,
      "Ġgild": 4973,
      "Ġgarden": 4974,
      "ĠTor": 4975,
      "Ġpee": 4976,
      "Ġpost": 4977,
      "owly": 4978,
      "ĠSil": 4979,
      "ĠSix": 4980,
      "Ġbeating": 4981,
      "oting": 4982,
      "Ġstat": 4983,
      "Ġstagg": 4984,
      "ĠHave": 4985,
      "ached": 4986,
      "Ġequ": 4987,
      "Ġkeeps": 4988,
      "omen": 4989,
      "ooped": 4990,
      "Ġhalt": 4991,
      "ĠLands": 4992,
      "ĠLyn": 4993,
      "Ġforked": 4994,
      "ĠAb": 4995,
      "Ġwhimp": 4996,
      "Ġshit": 4997,
      "Ġshore": 4998,
      "Ġshade": 4999,
      "Ġreared": 5000,
      "ĠJason": 5001,
      "aks": 5002,
      "alcon": 5003,
      "ĠRyk": 5004,
      "Ġrats": 5005,
      "ĠMark": 5006,
      "ĠMasha": 5007,
      "eller": 5008,
      "Ġmeas": 5009,
      "Ġbless": 5010,
      "Ġblond": 5011,
      "Ġisland": 5012,
      "ĠDA": 5013,
      "ĠDorn": 5014,
      "Ġsoiled": 5015,
      "unks": 5016,
      "Ġliar": 5017,
      "Ġswam": 5018,
      "Ġswirled": 5019,
      "Ġchose": 5020,
      "Ġroses": 5021,
      "Ġspot": 5022,
      "Ġspike": 5023,
      "Ġbacks": 5024,
      "ĠStreet": 5025,
      "Ġaren": 5026,
      "ruly": 5027,
      "rupted": 5028,
      "ĠFingers": 5029,
      "Ġeyed": 5030,
      "Ġunf": 5031,
      "Ġunm": 5032,
      "Ġquiver": 5033,
      "ĠPayne": 5034,
      "Ġflower": 5035,
      "Ġflashed": 5036,
      "ĠOf": 5037,
      "ĠOthor": 5038,
      "Ġcommons": 5039,
      "ĠEach": 5040,
      "tos": 5041,
      "Ġcocked": 5042,
      "Ġplaster": 5043,
      "Ġplunged": 5044,
      "Ġjumped": 5045,
      "athing": 5046,
      "Ġslapped": 5047,
      "Ġclosing": 5048,
      "ically": 5049,
      "ares": 5050,
      "wny": 5051,
      "Ġrare": 5052,
      "Ġramp": 5053,
      "inks": 5054,
      "Ġwoken": 5055,
      "ague": 5056,
      "Ġabrupt": 5057,
      "Ġblackened": 5058,
      "fford": 5059,
      "Ġlosing": 5060,
      "Ġgrateful": 5061,
      "Ġbrisk": 5062,
      "Ġoldest": 5063,
      "Ġhole": 5064,
      "Ġevening": 5065,
      "Ġglancing": 5066,
      "Ġamuse": 5067,
      "peci": 5068,
      "Ġtrimmed": 5069,
      "Ġdraft": 5070,
      "Ġanymore": 5071,
      "Ġmule": 5072,
      "Ġmuddy": 5073,
      "Ġsteaming": 5074,
      "Ġdarker": 5075,
      "bbling": 5076,
      "Ġlasted": 5077,
      "Ġhuddled": 5078,
      "Ġcrust": 5079,
      "Ġcrisp": 5080,
      "Ġcolder": 5081,
      "Ġcoldly": 5082,
      "Ġprote": 5083,
      "Ġcarav": 5084,
      "astern": 5085,
      "Ġdeeply": 5086,
      "Ġsilvered": 5087,
      "mented": 5088,
      "Ġpleasant": 5089,
      "Ġfeatures": 5090,
      "Ġcursing": 5091,
      "Ġhearts": 5092,
      "Ġsquat": 5093,
      "Ġsadness": 5094,
      "Ġthrobbing": 5095,
      "Ġspeaking": 5096,
      "Ġgets": 5097,
      "aza": 5098,
      "ĠUmber": 5099,
      "Ġhappens": 5100,
      "Ġbreathless": 5101,
      "ĠSea": 5102,
      "Ġmeaning": 5103,
      "Ġturns": 5104,
      "Ġmatters": 5105,
      "Ġspeaks": 5106,
      "Ġkindly": 5107,
      "Ġresumed": 5108,
      "ĠMoat": 5109,
      "ĠTargaryens": 5110,
      "Ġcreature": 5111,
      "Ġranger": 5112,
      "Ġpuff": 5113,
      "Ġattention": 5114,
      "Ġtender": 5115,
      "Ġinner": 5116,
      "Ġrefuse": 5117,
      "Ġmerc": 5118,
      "ĠAny": 5119,
      "Ġtub": 5120,
      "Ġscrambled": 5121,
      "Ġscrawny": 5122,
      "Ġshadowskin": 5123,
      "Ġgriev": 5124,
      "Ġconsidered": 5125,
      "Ġintend": 5126,
      "Ġtrusted": 5127,
      "Ġstewards": 5128,
      "Ġpurse": 5129,
      "ĠIsles": 5130,
      "black": 5131,
      "Ġburden": 5132,
      "Ġguest": 5133,
      "Ġwoolen": 5134,
      "Ġinterrupted": 5135,
      "Ġsplinter": 5136,
      "Ġglimpse": 5137,
      "Ġaud": 5138,
      "Ġmagnific": 5139,
      "Ġwishing": 5140,
      "Ġknock": 5141,
      "ĠEveryone": 5142,
      "Ġgrum": 5143,
      "Ġgrumbled": 5144,
      "Ġpresence": 5145,
      "Ġtrickled": 5146,
      "Ġregarded": 5147,
      "Ġstrangers": 5148,
      "Ġjaws": 5149,
      "Ġpikes": 5150,
      "Ġbitterly": 5151,
      "Ġweirwoods": 5152,
      "Ġconfessed": 5153,
      "Ġsuggest": 5154,
      "Ġfavorite": 5155,
      "Ġdusty": 5156,
      "Ġspiked": 5157,
      "Ġrequire": 5158,
      "ĠBetter": 5159,
      "ĠLefford": 5160,
      "Ġspirits": 5161,
      "Ġfearsome": 5162,
      "Ġawkwardly": 5163,
      "nament": 5164,
      "Ġfilthy": 5165,
      "Ġvillage": 5166,
      "Ġnortherners": 5167,
      "Ġdungeon": 5168,
      "Ġstretched": 5169,
      "ĠEastwatch": 5170,
      "Ġmourn": 5171,
      "Ġwitness": 5172,
      "Ġfailing": 5173,
      "queror": 5174,
      "Ġspells": 5175,
      "Ġscowled": 5176,
      "RYS": 5177,
      "Ġseveral": 5178,
      "ĠTHRONLS": 5179,
      "break": 5180,
      "Ġdrums": 5181,
      "ĠWendel": 5182,
      "Ġimportant": 5183,
      "ject": 5184,
      "Ġtapest": 5185,
      "ĠManderly": 5186,
      "Ġapolog": 5187,
      "Blood": 5188,
      "Ġutterly": 5189,
      "Ġposition": 5190,
      "NERYS": 5191,
      "Seven": 5192,
      "Sweet": 5193,
      "Ġtrans": 5194,
      "Ġyesterday": 5195,
      "ĠSteward": 5196,
      "ĠMARTIN": 5197,
      "flesh": 5198,
      "Ġerected": 5199,
      "Ġgilded": 5200,
      "ĠRykker": 5201,
      "ĠDornish": 5202,
      "Ġabruptly": 5203,
      "pecially": 5204,
      "Ġmagnificent": 5205,
      "Corn": 5206,
      "Every": 5207,
      "Enough": 5208,
      "ENERYS": 5209,
      "ION": 5210,
      "Re": 5211,
      "RION": 5212,
      "See": 5213,
      "Tyrion": 5214,
      "YRION": 5215,
      "by": 5216,
      "bir": 5217,
      "bur": 5218,
      "bray": 5219,
      "cat": 5220,
      "elding": 5221,
      "falcon": 5222,
      "gn": 5223,
      "gr": 5224,
      "grey": 5225,
      "ial": 5226,
      "long": 5227,
      "lic": 5228,
      "rit": 5229,
      "rise": 5230,
      "uc": 5231,
      "uff": 5232,
      "ude": 5233,
      "wen": 5234,
      "what": 5235,
      "ywen": 5236,
      "zing": 5237,
      "Ġ2": 5238,
      "hest": 5239,
      "heless": 5240,
      "Ġtur": 5241,
      "Ġtour": 5242,
      "Ġtend": 5243,
      "Ġav": 5244,
      "Ġske": 5245,
      "Ġsigh": 5246,
      "Ġwri": 5247,
      "Ġwield": 5248,
      "Ġwench": 5249,
      "Ġwestern": 5250,
      "Ġhushed": 5251,
      "Ġhint": 5252,
      "Ġbars": 5253,
      "Ġborrow": 5254,
      "Ġoh": 5255,
      "Ġoars": 5256,
      "Ġmile": 5257,
      "Ġmap": 5258,
      "Ġmoney": 5259,
      "Ġmissed": 5260,
      "orter": 5261,
      "Ġcoo": 5262,
      "Ġcott": 5263,
      "Ġtore": 5264,
      "arled": 5265,
      "Ġlens": 5266,
      "Ġdice": 5267,
      "Ġthie": 5268,
      "Ġthirst": 5269,
      "rog": 5270,
      "Ġgap": 5271,
      "Ġgrot": 5272,
      "Ġgrant": 5273,
      "Ġgener": 5274,
      "Ġgelding": 5275,
      "ĠTears": 5276,
      "ĠTYRION": 5277,
      "Ġprow": 5278,
      "Ġpier": 5279,
      "Ġpacked": 5280,
      "ghold": 5281,
      "Ġink": 5282,
      "Ġbef": 5283,
      "Ġbegg": 5284,
      "Ġbegging": 5285,
      "othed": 5286,
      "Ġstr": 5287,
      "Ġstron": 5288,
      "Ġstunted": 5289,
      "ĠHed": 5290,
      "ĠHobb": 5291,
      "acy": 5292,
      "acon": 5293,
      "Ġonions": 5294,
      "Ġascend": 5295,
      "Ġev": 5296,
      "Ġhaun": 5297,
      "ĠLater": 5298,
      "Ġformed": 5299,
      "Ġforged": 5300,
      "Ġshell": 5301,
      "Ġsheathed": 5302,
      "ĠAge": 5303,
      "ĠAron": 5304,
      "cepted": 5305,
      "ills": 5306,
      "ĠBu": 5307,
      "ĠBoth": 5308,
      "ĠJON": 5309,
      "ĠMik": 5310,
      "acks": 5311,
      "Ġbutter": 5312,
      "Ġmeals": 5313,
      "Ġknives": 5314,
      "ĠDayne": 5315,
      "ĠCail": 5316,
      "unthor": 5317,
      "hens": 5318,
      "Ġliken": 5319,
      "Ġswirling": 5320,
      "Ġarch": 5321,
      "Ġcloud": 5322,
      "Ġclasped": 5323,
      "Ġchallen": 5324,
      "Ġnearest": 5325,
      "Ġgoat": 5326,
      "Ġsees": 5327,
      "Ġrob": 5328,
      "Ġroar": 5329,
      "Ġroots": 5330,
      "arks": 5331,
      "Ġviv": 5332,
      "Ġspr": 5333,
      "Ġspied": 5334,
      "Ġtheirs": 5335,
      "ĠKary": 5336,
      "ths": 5337,
      "thur": 5338,
      "ggle": 5339,
      "Ġsucked": 5340,
      "Ġunk": 5341,
      "Ġunhor": 5342,
      "Ġflared": 5343,
      "Ġflint": 5344,
      "Ġoffic": 5345,
      "Ġcoals": 5346,
      "Ġcoppers": 5347,
      "Ġplat": 5348,
      "Ġja": 5349,
      "Ġjagged": 5350,
      "Ġslim": 5351,
      "Ġslowed": 5352,
      "dding": 5353,
      "ildren": 5354,
      "icular": 5355,
      "icient": 5356,
      "ushes": 5357,
      "ĠVance": 5358,
      "Ġtwit": 5359,
      "Ġmocked": 5360,
      "Ġraked": 5361,
      "Ġrags": 5362,
      "inking": 5363,
      "Ġotherwise": 5364,
      "Ġenam": 5365,
      "Ġholes": 5366,
      "Ġhoping": 5367,
      "Ġache": 5368,
      "Ġaccepted": 5369,
      "igned": 5370,
      "Ġwarmed": 5371,
      "Ġponder": 5372,
      "Ġsne": 5373,
      "Ġsnort": 5374,
      "Ġsnap": 5375,
      "Ġcalls": 5376,
      "Ġfond": 5377,
      "Ġfoster": 5378,
      "ples": 5379,
      "Ġunderneath": 5380,
      "Ġmighty": 5381,
      "irless": 5382,
      "ishment": 5383,
      "Ġgreater": 5384,
      "Ġexam": 5385,
      "Ġcrime": 5386,
      "Ġcrashed": 5387,
      "Ġtrump": 5388,
      "Ġsmallfolk": 5389,
      "Ġproc": 5390,
      "Ġprop": 5391,
      "Ġproper": 5392,
      "Ġpeas": 5393,
      "Ġlightning": 5394,
      "Ġmoments": 5395,
      "ĠArthur": 5396,
      "Ġrealize": 5397,
      "Ġgiggled": 5398,
      "Ġgiggling": 5399,
      "Ġpromises": 5400,
      "Ġremoved": 5401,
      "Ġdragonbone": 5402,
      "Ġscreams": 5403,
      "Ġirrit": 5404,
      "Ġthrobbed": 5405,
      "Ġtrueborn": 5406,
      "Ġriverlands": 5407,
      "Ġopening": 5408,
      "Ġcleared": 5409,
      "Ġangrily": 5410,
      "Ġlesser": 5411,
      "Ġapple": 5412,
      "Ġbitch": 5413,
      "Ġfret": 5414,
      "Ġturnkey": 5415,
      "Ġdrop": 5416,
      "Ġstalls": 5417,
      "Ġlaying": 5418,
      "Ġfoolish": 5419,
      "Ġhuny": 5420,
      "Ġchoked": 5421,
      "ĠBeneath": 5422,
      "Ġcrawled": 5423,
      "Ġcrawling": 5424,
      "Ġbarred": 5425,
      "Ġcrescent": 5426,
      "Ġwildling": 5427,
      "Ġfasten": 5428,
      "Ġperil": 5429,
      "Ġtrial": 5430,
      "Ġbarely": 5431,
      "Ġbowl": 5432,
      "Ġbowing": 5433,
      "Ġbabes": 5434,
      "Ġbannerman": 5435,
      "Ġaccom": 5436,
      "Ġespecially": 5437,
      "umbling": 5438,
      "Ġdecreed": 5439,
      "Ġtorches": 5440,
      "Ġurge": 5441,
      "Ġharmed": 5442,
      "Ġtube": 5443,
      "Ġreport": 5444,
      "Ġrelie": 5445,
      "ĠHarbor": 5446,
      "Ġsearched": 5447,
      "Ġchainmail": 5448,
      "Ġsorts": 5449,
      "Ġfrost": 5450,
      "Ġdismount": 5451,
      "Ġhammered": 5452,
      "Ġtunnel": 5453,
      "Ġaurochs": 5454,
      "Ġassured": 5455,
      "Ġwisps": 5456,
      "Ġknocking": 5457,
      "Ġwelcomed": 5458,
      "Ġgruff": 5459,
      "ĠDonal": 5460,
      "ĠDonnel": 5461,
      "Ġconcer": 5462,
      "Ġapproach": 5463,
      "Ġhoof": 5464,
      "ĠHalf": 5465,
      "ĠHali": 5466,
      "ĠValyria": 5467,
      "Ġmaiden": 5468,
      "Ġloyalty": 5469,
      "Ġshrieking": 5470,
      "Ġadvent": 5471,
      "Ġeager": 5472,
      "Ġcuriously": 5473,
      "Ġoaths": 5474,
      "Ġmissing": 5475,
      "Ġclaimed": 5476,
      "zzle": 5477,
      "Ġpracticed": 5478,
      "ĠConqueror": 5479,
      "Ġcurtains": 5480,
      "Ġbeaten": 5481,
      "ĠBetween": 5482,
      "Ġwritten": 5483,
      "Ġcooks": 5484,
      "Ġrustling": 5485,
      "Ġunshe": 5486,
      "Ġdisappoint": 5487,
      "Ġuncomfortably": 5488,
      "Ġtowns": 5489,
      "Ġmockery": 5490,
      "Ġsufficient": 5491,
      "Ġwineseller": 5492,
      "Ġbleeding": 5493,
      "Ġdungeons": 5494,
      "Ġdestrier": 5495,
      "Ġwhistled": 5496,
      "Ġskulls": 5497,
      "Ġpressing": 5498,
      "Ġfashioned": 5499,
      "Ġsoldiers": 5500,
      "Ġscratched": 5501,
      "Ġdesperately": 5502,
      "Ġpolitely": 5503,
      "Leave": 5504,
      "Ġtomorrow": 5505,
      "Ġtraders": 5506,
      "Ġinstruct": 5507,
      "Ġpledge": 5508,
      "Ġpatterned": 5509,
      "Ġsuckling": 5510,
      "Ġneedlework": 5511,
      "Ġdespair": 5512,
      "Ġcouncillors": 5513,
      "Ġrespond": 5514,
      "Ġgargoyle": 5515,
      "Ġcripple": 5516,
      "Ġmedallions": 5517,
      "ĠBracken": 5518,
      "ĠGAML": 5519,
      "Ġcombat": 5520,
      "Ġplucked": 5521,
      "Ġfolded": 5522,
      "Ġbrigands": 5523,
      "Ġeldest": 5524,
      "ĠCorbray": 5525,
      "atural": 5526,
      "uctantly": 5527,
      "ĠHoldfast": 5528,
      "Ġflinch": 5529,
      "Ġretainers": 5530,
      "Ġcrystal": 5531,
      "Ġfuture": 5532,
      "onetheless": 5533,
      "Ġsafety": 5534,
      "Ġprinces": 5535,
      "Ġdisturb": 5536,
      "Ġcorrected": 5537,
      "Ġcollapsed": 5538,
      "Lannister": 5539,
      "Ġgnarled": 5540,
      "ĠMarket": 5541,
      "ĠDAENERYS": 5542,
      "Ġgrievous": 5543,
      "Ġtapestries": 5544,
      "Ġgrotes": 5545,
      "Ġstronghold": 5546,
      "ĠMikken": 5547,
      "ĠCailin": 5548,
      "Ġlikeness": 5549,
      "ĠKaryl": 5550,
      "Ġunhorsed": 5551,
      "Any": 5552,
      "Best": 5553,
      "Drogo": 5554,
      "EORG": 5555,
      "Ghost": 5556,
      "Hel": 5557,
      "King": 5558,
      "Khal": 5559,
      "Maybe": 5560,
      "None": 5561,
      "Never": 5562,
      "Small": 5563,
      "cony": 5564,
      "dain": 5565,
      "dest": 5566,
      "gen": 5567,
      "ket": 5568,
      "mare": 5569,
      "matched": 5570,
      "nels": 5571,
      "ok": 5572,
      "rhen": 5573,
      "sm": 5574,
      "sons": 5575,
      "uss": 5576,
      "uded": 5577,
      "vos": 5578,
      "vious": 5579,
      "we": 5580,
      "yll": 5581,
      "Ġ3": 5582,
      "Ġvenge": 5583,
      "Ġtens": 5584,
      "Ġadd": 5585,
      "Ġached": 5586,
      "Ġaxes": 5587,
      "Ġsid": 5588,
      "Ġsly": 5589,
      "Ġsip": 5590,
      "Ġwad": 5591,
      "Ġwisp": 5592,
      "Ġwret": 5593,
      "ines": 5594,
      "inted": 5595,
      "erold": 5596,
      "ouds": 5597,
      "Ġbas": 5598,
      "Ġbows": 5599,
      "Ġbacon": 5600,
      "Ġomin": 5601,
      "res": 5602,
      "rees": 5603,
      "rest": 5604,
      "rehens": 5605,
      "ising": 5606,
      "Ġford": 5607,
      "Ġmatted": 5608,
      "att": 5609,
      "Ġtoss": 5610,
      "armed": 5611,
      "arrion": 5612,
      "Ġdashed": 5613,
      "Ġdigg": 5614,
      "asks": 5615,
      "ads": 5616,
      "Ġgoose": 5617,
      "ĠTall": 5618,
      "Ġpen": 5619,
      "Ġpan": 5620,
      "Ġpure": 5621,
      "Ġpiled": 5622,
      "Ġpiss": 5623,
      "Ġpike": 5624,
      "Ġpork": 5625,
      "iment": 5626,
      "ĠSince": 5627,
      "ĠSurely": 5628,
      "Ġbeak": 5629,
      "Ġbears": 5630,
      "leket": 5631,
      "Ġherald": 5632,
      "lyss": 5633,
      "Ġstained": 5634,
      "Ġstalked": 5635,
      "Ġstinging": 5636,
      "ĠHu": 5637,
      "ĠHill": 5638,
      "aching": 5639,
      "Ġsapp": 5640,
      "Ġsafer": 5641,
      "Ġeff": 5642,
      "stead": 5643,
      "Ġhairless": 5644,
      "Ġshed": 5645,
      "ĠAlyss": 5646,
      "Ġshove": 5647,
      "Ġshowing": 5648,
      "Ġshamed": 5649,
      "Ġshirt": 5650,
      "Ġshorter": 5651,
      "ĠHel": 5652,
      "urleket": 5653,
      "ĠBel": 5654,
      "ĠBastard": 5655,
      "aken": 5656,
      "ĠWode": 5657,
      "alf": 5658,
      "ĠRand": 5659,
      "ĠRho": 5660,
      "ilty": 5661,
      "Ġrumble": 5662,
      "Ġrushes": 5663,
      "ĠMake": 5664,
      "ĠMance": 5665,
      "ĠMott": 5666,
      "romise": 5667,
      "Ġblame": 5668,
      "ĠName": 5669,
      "ĠDond": 5670,
      "ĠDawn": 5671,
      "Ġsob": 5672,
      "Ġlick": 5673,
      "Ġliqu": 5674,
      "Ġdoll": 5675,
      "Ġclick": 5676,
      "Ġclaws": 5677,
      "Ġclenched": 5678,
      "Ġclouds": 5679,
      "Ġchick": 5680,
      "Ġchop": 5681,
      "Ġchances": 5682,
      "Ġchasing": 5683,
      "Ġgoats": 5684,
      "Ġsew": 5685,
      "Ġseize": 5686,
      "Ġrope": 5687,
      "ĠGunthor": 5688,
      "ĠGEORG": 5689,
      "ĠGerold": 5690,
      "Ġspiders": 5691,
      "Ġsmart": 5692,
      "ĠKurleket": 5693,
      "anting": 5694,
      "Ġdeer": 5695,
      "These": 5696,
      "ggy": 5697,
      "Ġsucc": 5698,
      "Ġunp": 5699,
      "Ġunw": 5700,
      "ĠPe": 5701,
      "Ġflap": 5702,
      "ĠOver": 5703,
      "ĠEgen": 5704,
      "Ġslo": 5705,
      "Ġslay": 5706,
      "Ġslumped": 5707,
      "ĠLannisp": 5708,
      "Ġnowhere": 5709,
      "Ġmodest": 5710,
      "Ġsilvery": 5711,
      "Ġgrunt": 5712,
      "Ġglove": 5713,
      "Ġglowing": 5714,
      "Ġwordless": 5715,
      "pecting": 5716,
      "Ġtrading": 5717,
      "Ġpoacher": 5718,
      "Ġhorseflesh": 5719,
      "Ġmuffled": 5720,
      "Ġhowl": 5721,
      "Ġdarkened": 5722,
      "Ġworthy": 5723,
      "Ġexile": 5724,
      "Ġexpecting": 5725,
      "ĠThoros": 5726,
      "Ġcrash": 5727,
      "Ġcrusted": 5728,
      "Ġfirepit": 5729,
      "Ġconv": 5730,
      "Ġsmallest": 5731,
      "Ġprecious": 5732,
      "Ġtreacher": 5733,
      "Ġdonned": 5734,
      "Ġfearless": 5735,
      "Ġstubble": 5736,
      "Ġlights": 5737,
      "Ġcarp": 5738,
      "Ġsideways": 5739,
      "Ġdisdain": 5740,
      "Ġholds": 5741,
      "Ġsunrise": 5742,
      "Ġheavier": 5743,
      "Ġcurls": 5744,
      "Those": 5745,
      "Ġgrows": 5746,
      "Ġswordsman": 5747,
      "Ġtrap": 5748,
      "Ġtrail": 5749,
      "Ġtrailing": 5750,
      "Ġmarked": 5751,
      "Ġsurface": 5752,
      "Ġcourser": 5753,
      "Ġsaddled": 5754,
      "Ġdoubts": 5755,
      "Ġskinny": 5756,
      "Ġhelping": 5757,
      "Ġparticular": 5758,
      "ĠUlf": 5759,
      "Ġpoints": 5760,
      "Ġdescent": 5761,
      "Ġforearm": 5762,
      "Ġhappily": 5763,
      "Ġapprent": 5764,
      "Ġbirthing": 5765,
      "Ġearn": 5766,
      "Ġironwood": 5767,
      "Ġvision": 5768,
      "Ġcavern": 5769,
      "Ġdroop": 5770,
      "Ġledge": 5771,
      "Ġfloated": 5772,
      "Ġsupport": 5773,
      "Ġchoking": 5774,
      "ĠMole": 5775,
      "Ġinsult": 5776,
      "Ġimpact": 5777,
      "Ġfreeze": 5778,
      "Ġservant": 5779,
      "Ġawake": 5780,
      "Ġedged": 5781,
      "Ġtightened": 5782,
      "Ġbowmen": 5783,
      "Ġbowels": 5784,
      "Ġconfused": 5785,
      "Ġhostage": 5786,
      "Ġstandard": 5787,
      "Ġbadge": 5788,
      "ĠSomeone": 5789,
      "Ġuseless": 5790,
      "Ġdecide": 5791,
      "Ġvisitors": 5792,
      "Ġgarr": 5793,
      "Ġgarron": 5794,
      "Ġscrape": 5795,
      "Ġstarting": 5796,
      "Ġkneeling": 5797,
      "spun": 5798,
      "shaped": 5799,
      "Ġweakness": 5800,
      "ĠMyrish": 5801,
      "ĠSwann": 5802,
      "Ġsweaty": 5803,
      "Ġdelight": 5804,
      "Ġrelent": 5805,
      "blue": 5806,
      "Ġguff": 5807,
      "ĠUntil": 5808,
      "Ġwagon": 5809,
      "Ġembrace": 5810,
      "Ġbuilding": 5811,
      "Ġbuilders": 5812,
      "Ġdismay": 5813,
      "Once": 5814,
      "Ġpapers": 5815,
      "Ġroughspun": 5816,
      "Ġsmoking": 5817,
      "Ġexplain": 5818,
      "Ġgrimly": 5819,
      "Ġsleeves": 5820,
      "Ġfavored": 5821,
      "Ġsurprised": 5822,
      "Ġvelvets": 5823,
      "Ġoils": 5824,
      "Ġpresume": 5825,
      "Ġdeserter": 5826,
      "Ġclutching": 5827,
      "Ġbiggest": 5828,
      "Ġduties": 5829,
      "Ġgesture": 5830,
      "Ġpleading": 5831,
      "Ġadj": 5832,
      "Ġentrance": 5833,
      "Ġtangle": 5834,
      "Ġbandaged": 5835,
      "Ġbranch": 5836,
      "Ġmisl": 5837,
      "Ġmismatched": 5838,
      "Ġapartments": 5839,
      "Ġbalcony": 5840,
      "Ġveins": 5841,
      "Ġpitch": 5842,
      "Ġcomfortable": 5843,
      "Ġdiscuss": 5844,
      "Ġincred": 5845,
      "Ġrotting": 5846,
      "Ġrotten": 5847,
      "Ġactually": 5848,
      "Ġcrunch": 5849,
      "Ġbetrayed": 5850,
      "Ġbelonged": 5851,
      "Ġcauseway": 5852,
      "flies": 5853,
      "Ġforbidden": 5854,
      "Ġslaughtered": 5855,
      "Ġdesperate": 5856,
      "ĠSlowly": 5857,
      "Ġspilled": 5858,
      "Ġprovided": 5859,
      "Ġperfume": 5860,
      "Ġoddly": 5861,
      "Ġmiserable": 5862,
      "Ġrippling": 5863,
      "Ġheights": 5864,
      "Ġwarhammer": 5865,
      "Ġescaped": 5866,
      "Ġshelter": 5867,
      "Ġprepared": 5868,
      "Ġbundle": 5869,
      "ĠSwords": 5870,
      "Ġfortunate": 5871,
      "Ġhonest": 5872,
      "Ġhounds": 5873,
      "Ġlimbs": 5874,
      "Ġnipple": 5875,
      "Ġuntouched": 5876,
      "Ġscrubbed": 5877,
      "Ġglittered": 5878,
      "Ġdrifting": 5879,
      "Ġfragrant": 5880,
      "Whatever": 5881,
      "Ġnicely": 5882,
      "Ġsausage": 5883,
      "Ġhauber": 5884,
      "Ġrapers": 5885,
      "Ġbrusquely": 5886,
      "Winterfell": 5887,
      "Ġlantern": 5888,
      "Ġoutriders": 5889,
      "ĠGolden": 5890,
      "Ġabandoned": 5891,
      "Joffrey": 5892,
      "Ġstatue": 5893,
      "Ġbriskly": 5894,
      "Ġmerciful": 5895,
      "burst": 5896,
      "Ġthieves": 5897,
      "Ġbeggar": 5898,
      "Ġofficers": 5899,
      "Ġtrumpets": 5900,
      "Ġfastenings": 5901,
      "Help": 5902,
      "Ġdigging": 5903,
      "Ġsapph": 5904,
      "Ġeffort": 5905,
      "ĠAlyssa": 5906,
      "ĠRandyll": 5907,
      "ĠDondarrion": 5908,
      "Ġliquid": 5909,
      "ĠLannisport": 5910,
      "Ġcavernous": 5911,
      "Ben": 5912,
      "Boy": 5913,
      "Jory": 5914,
      "Lys": 5915,
      "Might": 5916,
      "Old": 5917,
      "Put": 5918,
      "Qu": 5919,
      "RAN": 5920,
      "Rickon": 5921,
      "Sit": 5922,
      "Sam": 5923,
      "Save": 5924,
      "Sept": 5925,
      "Summer": 5926,
      "Shagg": 5927,
      "Two": 5928,
      "Wa": 5929,
      "bho": 5930,
      "boys": 5931,
      "cer": 5932,
      "cro": 5933,
      "du": 5934,
      "das": 5935,
      "dged": 5936,
      "eon": 5937,
      "gest": 5938,
      "give": 5939,
      "gons": 5940,
      "hn": 5941,
      "io": 5942,
      "iving": 5943,
      "lers": 5944,
      "lose": 5945,
      "look": 5946,
      "liest": 5947,
      "mar": 5948,
      "made": 5949,
      "ohn": 5950,
      "qo": 5951,
      "rer": 5952,
      "skin": 5953,
      "uous": 5954,
      "undered": 5955,
      "wl": 5956,
      "ya": 5957,
      "Ġ(": 5958,
      "Ġ*": 5959,
      "Ġide": 5960,
      "Ġtar": 5961,
      "Ġtask": 5962,
      "Ġsill": 5963,
      "Ġsurn": 5964,
      "Ġsipped": 5965,
      "Ġwaking": 5966,
      "Ġhid": 5967,
      "Ġhire": 5968,
      "Ġhired": 5969,
      "erion": 5970,
      "outer": 5971,
      "ouch": 5972,
      "oubt": 5973,
      "Ġbord": 5974,
      "Ġbree": 5975,
      "Ġbared": 5976,
      "Ġowed": 5977,
      "Ġocc": 5978,
      "Ġfate": 5979,
      "Ġmere": 5980,
      "Ġmort": 5981,
      "Ġmask": 5982,
      "Ġmillion": 5983,
      "Ġmeek": 5984,
      "Ġmotion": 5985,
      "Ġcin": 5986,
      "Ġcong": 5987,
      "Ġcared": 5988,
      "atches": 5989,
      "Ġtoll": 5990,
      "Ġtooth": 5991,
      "arted": 5992,
      "Ġ\"-": 5993,
      "Ġlil": 5994,
      "Ġlust": 5995,
      "Ġlimp": 5996,
      "anqu": 5997,
      "ancho": 5998,
      "itude": 5999,
      "Ġdrow": 6000,
      "Ġdign": 6001,
      "Ġni": 6002,
      "Ġnic": 6003,
      "room": 6004,
      "ĠTry": 6005,
      "ĠTrant": 6006,
      "Ġhissed": 6007,
      "Ġpran": 6008,
      "Ġpelt": 6009,
      "Ġpush": 6010,
      "Ġpushing": 6011,
      "Ġincl": 6012,
      "ĠSher": 6013,
      "ĠSun": 6014,
      "ĠSky": 6015,
      "Ġbeheaded": 6016,
      "Ġbeef": 6017,
      "Ġherd": 6018,
      "lydas": 6019,
      "Ġstake": 6020,
      "Ġstands": 6021,
      "Ġstench": 6022,
      "ĠHonor": 6023,
      "Ġascent": 6024,
      "Ġeastern": 6025,
      "Ġkha": 6026,
      "omes": 6027,
      "rious": 6028,
      "Ġhaw": 6029,
      "Ġhaven": 6030,
      "iring": 6031,
      "ĠLike": 6032,
      "Ġsheen": 6033,
      "ĠAm": 6034,
      "ĠAgain": 6035,
      "ayder": 6036,
      "Ġwhick": 6037,
      "Ġshrun": 6038,
      "Ġshapes": 6039,
      "Ġreasons": 6040,
      "Ġreeling": 6041,
      "ĠHeward": 6042,
      "urry": 6043,
      "ĠBottom": 6044,
      "ĠBRAN": 6045,
      "ĠWood": 6046,
      "ĠWayn": 6047,
      "alord": 6048,
      "ality": 6049,
      "ĠRayder": 6050,
      "Ġrushed": 6051,
      "Ġrasping": 6052,
      "ĠNone": 6053,
      "ĠDown": 6054,
      "ĠDread": 6055,
      "ĠDywen": 6056,
      "ckled": 6057,
      "chance": 6058,
      "Ġank": 6059,
      "Ġanointed": 6060,
      "ĠCapt": 6061,
      "ĠClydas": 6062,
      "Ġsoil": 6063,
      "unned": 6064,
      "Ġlegg": 6065,
      "Ġnois": 6066,
      "Ġswim": 6067,
      "Ġswayed": 6068,
      "eared": 6069,
      "indled": 6070,
      "Ġmanage": 6071,
      "Ġclam": 6072,
      "Ġclatter": 6073,
      "Ġchor": 6074,
      "Ġchained": 6075,
      "Ġchief": 6076,
      "Ġchaf": 6077,
      "Ġalley": 6078,
      "quiet": 6079,
      "Ġsevent": 6080,
      "Ġwillful": 6081,
      "Ġroasted": 6082,
      "Ġupset": 6083,
      "ĠGend": 6084,
      "Ġvault": 6085,
      "ĠRobar": 6086,
      "Ġspring": 6087,
      "Ġsprang": 6088,
      "Ġboomed": 6089,
      "Ġhandle": 6090,
      "Ġdefe": 6091,
      "Ġdebt": 6092,
      "ĠSteel": 6093,
      "ĠFour": 6094,
      "ĠFire": 6095,
      "Ġalmond": 6096,
      "Ġsup": 6097,
      "Ġaged": 6098,
      "Ġunh": 6099,
      "Ġunse": 6100,
      "Ġweather": 6101,
      "Ġkingdom": 6102,
      "Ġgreaves": 6103,
      "ĠPromise": 6104,
      "Ġthanked": 6105,
      "Ġscour": 6106,
      "Ġflowed": 6107,
      "Ġflicked": 6108,
      "Ġcomm": 6109,
      "ĠEl": 6110,
      "isten": 6111,
      "Ġcock": 6112,
      "Ġcoarse": 6113,
      "Ġplum": 6114,
      "Ġplanned": 6115,
      "Ġordered": 6116,
      "haqo": 6117,
      "fts": 6118,
      "Ġslash": 6119,
      "Ġsliced": 6120,
      "Ġslipp": 6121,
      "Ġslaver": 6122,
      "Ġhorri": 6123,
      "Ġhorns": 6124,
      "uster": 6125,
      "Ġtwins": 6126,
      "Ġrip": 6127,
      "Ġripe": 6128,
      "Ġraise": 6129,
      "Ġrauc": 6130,
      "aging": 6131,
      "agers": 6132,
      "Ġloss": 6133,
      "Ġloping": 6134,
      "Ġloathing": 6135,
      "Ġgrasped": 6136,
      "Ġhopes": 6137,
      "Ġafire": 6138,
      "ĠYoung": 6139,
      "Ġglare": 6140,
      "Ġglory": 6141,
      "Ġglances": 6142,
      "Ġmustac": 6143,
      "Ġtrack": 6144,
      "Ġwherever": 6145,
      "ĠWhent": 6146,
      "Ġnightmare": 6147,
      "Ġbreathe": 6148,
      "Ġbreathed": 6149,
      "Ġhorselords": 6150,
      "Ġbeloved": 6151,
      "bbled": 6152,
      "Ġredden": 6153,
      "Ġworst": 6154,
      "Ġworking": 6155,
      "Ġskirts": 6156,
      "Ġcheer": 6157,
      "Ġcheap": 6158,
      "Ġchecked": 6159,
      "mering": 6160,
      "Ġext": 6161,
      "Ġexclaimed": 6162,
      "Ġrides": 6163,
      "Ġbesides": 6164,
      "Ġhalfway": 6165,
      "Ġfirep": 6166,
      "Ġconqu": 6167,
      "Ġconven": 6168,
      "Ġhighborn": 6169,
      "Ġtreat": 6170,
      "Ġtremble": 6171,
      "Ġprof": 6172,
      "Ġproclaimed": 6173,
      "Ġpeering": 6174,
      "Ġfarmers": 6175,
      "Ġputting": 6176,
      "Ġsentence": 6177,
      "ĠYohn": 6178,
      "Ġhonors": 6179,
      "Ġrested": 6180,
      "Ġsunset": 6181,
      "Ġsunburst": 6182,
      "Ġkhals": 6183,
      "Ġtrain": 6184,
      "Ġtrained": 6185,
      "Ġtraveled": 6186,
      "olored": 6187,
      "Ġlifting": 6188,
      "Ġruins": 6189,
      "Ġpasses": 6190,
      "Ġhurting": 6191,
      "Ġhurts": 6192,
      "ĠCerwyn": 6193,
      "ĠUp": 6194,
      "Ġscarce": 6195,
      "Ġfinish": 6196,
      "awing": 6197,
      "Ġfilly": 6198,
      "Ġappoint": 6199,
      "Ġbellowed": 6200,
      "Ġdoubtless": 6201,
      "Ġdoubtfully": 6202,
      "Ġcares": 6203,
      "Ġfreed": 6204,
      "ĠSealord": 6205,
      "Ġgrab": 6206,
      "Ġbruised": 6207,
      "Ġbruises": 6208,
      "claw": 6209,
      "Ġmattered": 6210,
      "Ġchests": 6211,
      "Ġlayers": 6212,
      "Ġdrive": 6213,
      "Ġdriven": 6214,
      "Ġfrightening": 6215,
      "Ġrecru": 6216,
      "Ġgallery": 6217,
      "ĠTobho": 6218,
      "Ġstock": 6219,
      "Ġsharpened": 6220,
      "chers": 6221,
      "Ġinsol": 6222,
      "Ġbarked": 6223,
      "Ġbarrow": 6224,
      "ission": 6225,
      "Ġtents": 6226,
      "ĠBlackwater": 6227,
      "hich": 6228,
      "Ġwinch": 6229,
      "Ġcrushed": 6230,
      "Ġreturning": 6231,
      "Ġaware": 6232,
      "Ġedges": 6233,
      "Ġlargest": 6234,
      "Ġinnkeep": 6235,
      "Ġaccount": 6236,
      "Ġfrown": 6237,
      "ĠSomehow": 6238,
      "Ġgarlic": 6239,
      "Ġprayer": 6240,
      "Ġstroke": 6241,
      "Ġjoint": 6242,
      "Ġblinding": 6243,
      "ĠQuick": 6244,
      "ĠQuiet": 6245,
      "Ġsticks": 6246,
      "ĠDragonk": 6247,
      "Ġgaped": 6248,
      "Ġdirty": 6249,
      "formed": 6250,
      "Ġpurs": 6251,
      "ivors": 6252,
      "Ġpaying": 6253,
      "Ġgroped": 6254,
      "Ġcounting": 6255,
      "ucky": 6256,
      "Ġyelled": 6257,
      "Ġstripped": 6258,
      "Ġechoing": 6259,
      "Ġprotection": 6260,
      "Ġhealthy": 6261,
      "Ġparap": 6262,
      "Ġassist": 6263,
      "Ġobey": 6264,
      "Ġroughly": 6265,
      "Ġexplod": 6266,
      "Ġdamnable": 6267,
      "Ġgloved": 6268,
      "ĠMoonlight": 6269,
      "Ġgravely": 6270,
      "Ġstirring": 6271,
      "Ġhumor": 6272,
      "Ġgrandsons": 6273,
      "Ġblankets": 6274,
      "Ġcomplain": 6275,
      "Ġimagined": 6276,
      "Ġapproval": 6277,
      "Ġtrotting": 6278,
      "Ġdug": 6279,
      "Ġducked": 6280,
      "Ġregret": 6281,
      "Ġbreakfast": 6282,
      "Ġtraitors": 6283,
      "Ġbravely": 6284,
      "Still": 6285,
      "Ġscented": 6286,
      "Ġadv": 6287,
      "Ġillness": 6288,
      "Ġentire": 6289,
      "Ġwrists": 6290,
      "Ġbandages": 6291,
      "ression": 6292,
      "berry": 6293,
      "Ġ11": 6294,
      "Ġmemories": 6295,
      "Ġmonster": 6296,
      "ĠMalleon": 6297,
      "Ġbolder": 6298,
      "Ġcurtain": 6299,
      "Ġpardon": 6300,
      "Ġpillars": 6301,
      "Ġemerald": 6302,
      "Ġbursting": 6303,
      "moving": 6304,
      "racks": 6305,
      "Ġmelancho": 6306,
      "Ġspiral": 6307,
      "Ġprisoners": 6308,
      "Ġdescending": 6309,
      "ĠBalerion": 6310,
      "ĠBloody": 6311,
      "Ġfailed": 6312,
      "ĠMaege": 6313,
      "Ġdestro": 6314,
      "Ġnumber": 6315,
      "Ġyielded": 6316,
      "Ġsurvivors": 6317,
      "Ġhammering": 6318,
      "Ġcasually": 6319,
      "Ġstaff": 6320,
      "Ġstabbed": 6321,
      "Ġgraceful": 6322,
      "Ġdisgrace": 6323,
      "ĠHornwood": 6324,
      "Ġantler": 6325,
      "Ġsubject": 6326,
      "Ġexpression": 6327,
      "Ġpermit": 6328,
      "Ġowe": 6329,
      "Ġmiserably": 6330,
      "Ġbrooding": 6331,
      "Ġstuffed": 6332,
      "Ġtemple": 6333,
      "Ġlimped": 6334,
      "Ġvaliant": 6335,
      "Ġwarhorn": 6336,
      "Ġescape": 6337,
      "ĠWylis": 6338,
      "Ġwandering": 6339,
      "Ġjeweled": 6340,
      "Ġpavilion": 6341,
      "Ġpavilions": 6342,
      "Ġdizzy": 6343,
      "Ġgleaming": 6344,
      "Ġsweeping": 6345,
      "Ġsuspected": 6346,
      "Ġfluttered": 6347,
      "Ġcradling": 6348,
      "Ġprotested": 6349,
      "Ġterrified": 6350,
      "Ġgauntlets": 6351,
      "Ġassembled": 6352,
      "Ġshrill": 6353,
      "ĠBeside": 6354,
      "Ġpossible": 6355,
      "Ġsqueezed": 6356,
      "Ġforgiveness": 6357,
      "Ġwizard": 6358,
      "Ġbasket": 6359,
      "Ġcamps": 6360,
      "Ġpowdered": 6361,
      "Ġcomplete": 6362,
      "Ġceiling": 6363,
      "Ġlonely": 6364,
      "Ġlazy": 6365,
      "ĠTorrhen": 6366,
      "Ġequal": 6367,
      "ĠAbove": 6368,
      "Ġramparts": 6369,
      "Ġamusement": 6370,
      "Ġprotected": 6371,
      "Ġaudience": 6372,
      "Ġgrumkins": 6373,
      "Remember": 6374,
      "Ġskew": 6375,
      "Ġborrowed": 6376,
      "ĠHeddle": 6377,
      "Ġvivid": 6378,
      "Ġplatform": 6379,
      "Ġenameled": 6380,
      "Ġprocession": 6381,
      "Ġperilous": 6382,
      "Ġconcerned": 6383,
      "Ġadventure": 6384,
      "Ġunsheathed": 6385,
      "Ġominous": 6386,
      "ĠTallh": 6387,
      "ĠBelow": 6388,
      "Ġpoachers": 6389,
      "Ġapprentice": 6390,
      "Ġhauberk": 6391,
      "Ġsapphires": 6392,
      "Lysa": 6393,
      "Septa": 6394,
      "Ġidea": 6395,
      "Ġmeekly": 6396,
      "Ġlilac": 6397,
      "ĠSherrer": 6398,
      "ĠkhaL": 6399,
      "ĠCaptain": 6400,
      "Ġleggings": 6401,
      "ĠGendry": 6402,
      "Ġraucous": 6403,
      "Ġmelancholy": 6404,
      "Al": 6405,
      "Beyond": 6406,
      "Ch": 6407,
      "ES": 6408,
      "Four": 6409,
      "Fool": 6410,
      "Ja": 6411,
      "Know": 6412,
      "Little": 6413,
      "More": 6414,
      "Rhae": 6415,
      "SA": 6416,
      "Sp": 6417,
      "Somet": 6418,
      "Syrio": 6419,
      "Tw": 6420,
      "Tre": 6421,
      "Viserys": 6422,
      "ax": 6423,
      "aps": 6424,
      "ailed": 6425,
      "aos": 6426,
      "axes": 6427,
      "bel": 6428,
      "brow": 6429,
      "bett": 6430,
      "cri": 6431,
      "cut": 6432,
      "cats": 6433,
      "cination": 6434,
      "covered": 6435,
      "dy": 6436,
      "dened": 6437,
      "eh": 6438,
      "fire": 6439,
      "field": 6440,
      "gin": 6441,
      "grown": 6442,
      "houses": 6443,
      "ived": 6444,
      "ibly": 6445,
      "lting": 6446,
      "lten": 6447,
      "lier": 6448,
      "oss": 6449,
      "ohor": 6450,
      "pher": 6451,
      "raced": 6452,
      "sion": 6453,
      "sho": 6454,
      "tic": 6455,
      "tles": 6456,
      "tipped": 6457,
      "ub": 6458,
      "ud": 6459,
      "uing": 6460,
      "uished": 6461,
      "yx": 6462,
      "Ġer": 6463,
      "Ġven": 6464,
      "Ġiv": 6465,
      "Ġouter": 6466,
      "heard": 6467,
      "Ġtro": 6468,
      "Ġtil": 6469,
      "Ġtide": 6470,
      "Ġtough": 6471,
      "Ġtren": 6472,
      "Ġtaver": 6473,
      "Ġais": 6474,
      "Ġaver": 6475,
      "Ġaching": 6476,
      "Ġsought": 6477,
      "Ġsings": 6478,
      "Ġwight": 6479,
      "Ġwry": 6480,
      "Ġwist": 6481,
      "Ġwiser": 6482,
      "Ġweren": 6483,
      "inting": 6484,
      "inary": 6485,
      "Ġhord": 6486,
      "Ġhast": 6487,
      "Ġhang": 6488,
      "Ġhip": 6489,
      "Ġharsh": 6490,
      "Ġhanging": 6491,
      "eding": 6492,
      "Ġbind": 6493,
      "Ġbought": 6494,
      "Ġbother": 6495,
      "Ġbum": 6496,
      "Ġbrand": 6497,
      "Ġbored": 6498,
      "Ġbaza": 6499,
      "Ġox": 6500,
      "Ġoaf": 6501,
      "isf": 6502,
      "isite": 6503,
      "isses": 6504,
      "isions": 6505,
      "Ġfas": 6506,
      "Ġfoul": 6507,
      "Ġmot": 6508,
      "Ġmain": 6509,
      "Ġmaz": 6510,
      "Ġmatched": 6511,
      "Ġmint": 6512,
      "orther": 6513,
      "Ġcun": 6514,
      "Ġcounted": 6515,
      "atting": 6516,
      "ency": 6517,
      "enger": 6518,
      "Ġtoy": 6519,
      "Ġtoes": 6520,
      "Ġtome": 6521,
      "arly": 6522,
      "Ġlam": 6523,
      "Ġlack": 6524,
      "Ġlake": 6525,
      "Ġlest": 6526,
      "Ġlang": 6527,
      "Ġlinks": 6528,
      "ites": 6529,
      "itad": 6530,
      "Ġdig": 6531,
      "Ġdense": 6532,
      "ashes": 6533,
      "Ġoftt": 6534,
      "Ġthundered": 6535,
      "Ġnatural": 6536,
      "roll": 6537,
      "rolled": 6538,
      "roeh": 6539,
      "Ġgust": 6540,
      "Ġgames": 6541,
      "ident": 6542,
      "idable": 6543,
      "idian": 6544,
      "ĠTod": 6545,
      "ĠTumb": 6546,
      "Ġhist": 6547,
      "Ġpile": 6548,
      "ghter": 6549,
      "imed": 6550,
      "imble": 6551,
      "Ġinward": 6552,
      "Ġinches": 6553,
      "ĠSp": 6554,
      "ĠSee": 6555,
      "ĠSant": 6556,
      "ĠSend": 6557,
      "ĠSpid": 6558,
      "ĠSAN": 6559,
      "Ġwaste": 6560,
      "lets": 6561,
      "ĠIT": 6562,
      "Ġstit": 6563,
      "Ġstain": 6564,
      "Ġstains": 6565,
      "Ġstank": 6566,
      "Ġstunned": 6567,
      "ĠHarys": 6568,
      "Ġsable": 6569,
      "Ġonion": 6570,
      "Ġonyx": 6571,
      "Ġele": 6572,
      "Ġkin": 6573,
      "Ġkisses": 6574,
      "omb": 6575,
      "right": 6576,
      "rils": 6577,
      "star": 6578,
      "stle": 6579,
      "stru": 6580,
      "stones": 6581,
      "Ġhail": 6582,
      "Ġwithd": 6583,
      "eted": 6584,
      "Ġupper": 6585,
      "ĠLance": 6586,
      "Ġforfe": 6587,
      "Ġwhin": 6588,
      "Ġwhom": 6589,
      "Ġwhirling": 6590,
      "ardens": 6591,
      "Ġshown": 6592,
      "Ġshave": 6593,
      "Ġshine": 6594,
      "Ġshift": 6595,
      "Ġsharing": 6596,
      "Ġshirts": 6597,
      "illed": 6598,
      "Ġreve": 6599,
      "Ġrece": 6600,
      "Ġreass": 6601,
      "Ġreign": 6602,
      "Ġreeled": 6603,
      "ĠBold": 6604,
      "ĠJade": 6605,
      "ĠJhaqo": 6606,
      "Ġattempt": 6607,
      "akable": 6608,
      "ĠWhe": 6609,
      "ĠWor": 6610,
      "ĠWord": 6611,
      "ĠWestern": 6612,
      "alp": 6613,
      "ĠMart": 6614,
      "ĠMorning": 6615,
      "elly": 6616,
      "ified": 6617,
      "Ġbutt": 6618,
      "Ġmelt": 6619,
      "Ġknuck": 6620,
      "chment": 6621,
      "ĠCar": 6622,
      "ĠCra": 6623,
      "ĠCalm": 6624,
      "Ġsoot": 6625,
      "Ġsobbed": 6626,
      "Ġleaf": 6627,
      "Ġliking": 6628,
      "Ġsway": 6629,
      "Ġmanse": 6630,
      "Ġarrayed": 6631,
      "Ġarrog": 6632,
      "Ġclack": 6633,
      "Ġclash": 6634,
      "Ġclicked": 6635,
      "Ġclapped": 6636,
      "Ġchunk": 6637,
      "Ġchaos": 6638,
      "quisite": 6639,
      "Ġsepar": 6640,
      "Ġrook": 6641,
      "Ġvir": 6642,
      "Ġvig": 6643,
      "Ġvang": 6644,
      "anning": 6645,
      "Ġspark": 6646,
      "Ġspray": 6647,
      "Ġbobbed": 6648,
      "Ġbolted": 6649,
      "Ġsmir": 6650,
      "ĠFive": 6651,
      "ĠFaces": 6652,
      "Ġalt": 6653,
      "Ġsull": 6654,
      "Ġsuits": 6655,
      "Ġsucking": 6656,
      "Ġunrolled": 6657,
      "Ġgrease": 6658,
      "ĠPod": 6659,
      "ĠPorther": 6660,
      "Ġscy": 6661,
      "Ġscald": 6662,
      "Ġscreen": 6663,
      "Ġscene": 6664,
      "Ġscalp": 6665,
      "Ġlordship": 6666,
      "Ġflow": 6667,
      "Ġflapped": 6668,
      "Ġflowing": 6669,
      "Ġflapping": 6670,
      "ousers": 6671,
      "Ġoffend": 6672,
      "Ġoffering": 6673,
      "ĠEars": 6674,
      "Ġcoat": 6675,
      "Ġcoiled": 6676,
      "Ġjars": 6677,
      "Ġornament": 6678,
      "Ġslut": 6679,
      "Ġslashing": 6680,
      "dden": 6681,
      "Ġhorned": 6682,
      "ilder": 6683,
      "ĠVis": 6684,
      "Ġmoaned": 6685,
      "Ġmoaning": 6686,
      "Ġmolten": 6687,
      "Ġbloodm": 6688,
      "Ġraped": 6689,
      "Ġraiders": 6690,
      "agar": 6691,
      "Ġabed": 6692,
      "Ġlover": 6693,
      "Ġbrace": 6694,
      "Ġbrittle": 6695,
      "Ġbrings": 6696,
      "Ġthoughtful": 6697,
      "Ġusing": 6698,
      "Ġacqu": 6699,
      "Ġaccept": 6700,
      "Ġwelled": 6701,
      "igo": 6702,
      "Ġchildhood": 6703,
      "Ġtrout": 6704,
      "Ġpole": 6705,
      "Ġpoked": 6706,
      "Ġposter": 6707,
      "Ġsnapping": 6708,
      "Ġhorseback": 6709,
      "play": 6710,
      "Ġunderfoot": 6711,
      "Ġmuzzle": 6712,
      "Ġletting": 6713,
      "Ġdarkly": 6714,
      "Ġbelts": 6715,
      "Ġwinding": 6716,
      "Ġhardly": 6717,
      "Ġgreatest": 6718,
      "Ġgreathelm": 6719,
      "Ġhairy": 6720,
      "Ġexha": 6721,
      "Ġexquisite": 6722,
      "Ġdoorway": 6723,
      "Ġwail": 6724,
      "ĠThick": 6725,
      "atters": 6726,
      "Ġguarding": 6727,
      "ctly": 6728,
      "cture": 6729,
      "ĠTytos": 6730,
      "ispering": 6731,
      "atching": 6732,
      "Ġourselves": 6733,
      "Ġtrestle": 6734,
      "Ġproved": 6735,
      "Ġproclaim": 6736,
      "Ġpepper": 6737,
      "Ġstuck": 6738,
      "Ġfinding": 6739,
      "Ġgives": 6740,
      "Ġrestlessly": 6741,
      "airs": 6742,
      "Ġdisquiet": 6743,
      "Ġdisbel": 6744,
      "Ġsatisf": 6745,
      "ĠJafer": 6746,
      "Ġsweetling": 6747,
      "owering": 6748,
      "Ġremove": 6749,
      "ĠLysene": 6750,
      "temp": 6751,
      "Ġdirection": 6752,
      "Ġfellow": 6753,
      "Ġclosely": 6754,
      "Ġmothers": 6755,
      "olved": 6756,
      "Ġanswers": 6757,
      "Ġsleepy": 6758,
      "Ġrude": 6759,
      "Ġbathed": 6760,
      "Ġbattles": 6761,
      "Ġfewer": 6762,
      "cellent": 6763,
      "Ġirons": 6764,
      "Ġdoubled": 6765,
      "Ġskinning": 6766,
      "Ġsettle": 6767,
      "Ġcertainly": 6768,
      "Ġparts": 6769,
      "Ġfriendship": 6770,
      "ĠForgive": 6771,
      "Ġclearing": 6772,
      "Ġlessons": 6773,
      "Ġappet": 6774,
      "Ġapples": 6775,
      "Ġapprehens": 6776,
      "Ġbits": 6777,
      "Ġquicker": 6778,
      "Ġmurd": 6779,
      "Ġcaution": 6780,
      "beats": 6781,
      "serve": 6782,
      "Ġease": 6783,
      "Ġthreats": 6784,
      "Ġfloating": 6785,
      "Ġstole": 6786,
      "Ġresume": 6787,
      "Ġroads": 6788,
      "Ġterrace": 6789,
      "Ġcram": 6790,
      "Ġbarbar": 6791,
      "Ġbarracks": 6792,
      "Ġcrest": 6793,
      "ithered": 6794,
      "Ġdistaste": 6795,
      "Ġhotly": 6796,
      "Ġselling": 6797,
      "ĠSoon": 6798,
      "Ġperfe": 6799,
      "Ġlearning": 6800,
      "Ġpuzzled": 6801,
      "cipl": 6802,
      "Ġthirteen": 6803,
      "ĠDolf": 6804,
      "Ġelsewhere": 6805,
      "Ġaccent": 6806,
      "Ġaccused": 6807,
      "Ġhosts": 6808,
      "ĠSomewhere": 6809,
      "Ġcolors": 6810,
      "Ġforests": 6811,
      "Ġdefiant": 6812,
      "Ġsickly": 6813,
      "Ġmaps": 6814,
      "ĠWhile": 6815,
      "ĠWhispering": 6816,
      "Ġscrambling": 6817,
      "Ġbrushing": 6818,
      "Ġwrought": 6819,
      "Ġsticky": 6820,
      "Ġconsider": 6821,
      "Ġconscious": 6822,
      "Ġintoned": 6823,
      "Ġintended": 6824,
      "Ġstreamed": 6825,
      "Ġstreaming": 6826,
      "Ġshock": 6827,
      "ĠSweet": 6828,
      "Ġpurp": 6829,
      "ĠIsland": 6830,
      "Ġfortress": 6831,
      "Ġpretended": 6832,
      "blood": 6833,
      "Ġgrove": 6834,
      "Ġgroom": 6835,
      "Ġgroaned": 6836,
      "Ġseared": 6837,
      "Ġmessenger": 6838,
      "Ġdryly": 6839,
      "Ġguests": 6840,
      "Ġguilty": 6841,
      "ĠShould": 6842,
      "ĠUnless": 6843,
      "Ġcountry": 6844,
      "Ġembers": 6845,
      "Ġfroze": 6846,
      "Ġstrip": 6847,
      "Ġsplashing": 6848,
      "Ġhealed": 6849,
      "Ġparchment": 6850,
      "Ġcontro": 6851,
      "Ġwishes": 6852,
      "Ġmidnight": 6853,
      "Ġsmoothed": 6854,
      "Ġstudy": 6855,
      "Ġstudying": 6856,
      "Ġgrimaced": 6857,
      "Ġjoking": 6858,
      "Ġignore": 6859,
      "Ġapproached": 6860,
      "Ġtrickle": 6861,
      "Ġquarters": 6862,
      "Ġjuice": 6863,
      "Ġhesitantly": 6864,
      "Ġmaids": 6865,
      "Ġduel": 6866,
      "Ġarakhs": 6867,
      "Stay": 6868,
      "Ġkitten": 6869,
      "Ġrecognize": 6870,
      "Ġoathbreak": 6871,
      "Ġfrail": 6872,
      "Ġmissha": 6873,
      "Ġsandals": 6874,
      "Ġjerkin": 6875,
      "Ġsuspicion": 6876,
      "Ġstags": 6877,
      "ĠBrax": 6878,
      "Ġsealed": 6879,
      "Ġsnarl": 6880,
      "Ġsnarled": 6881,
      "Ġfeeding": 6882,
      "ĠAlbett": 6883,
      "Ġleague": 6884,
      "Ġcatching": 6885,
      "Ġpools": 6886,
      "Ġcolumns": 6887,
      "Ġwrites": 6888,
      "Ġkitchens": 6889,
      "ĠLeave": 6890,
      "Ġsprawling": 6891,
      "Ġtwisting": 6892,
      "Ġdisappointed": 6893,
      "Ġfeatherbed": 6894,
      "Someone": 6895,
      "Ġformidable": 6896,
      "naments": 6897,
      "Ġargued": 6898,
      "Ġvillagers": 6899,
      "Ġsuffer": 6900,
      "Ġcravens": 6901,
      "Uncle": 6902,
      "Ġforbid": 6903,
      "Ġblocks": 6904,
      "Ġbrothels": 6905,
      "Ġmockingbir": 6906,
      "Ġsurvive": 6907,
      "Ġhurriedly": 6908,
      "Ġdelicacy": 6909,
      "Ġblinking": 6910,
      "Ġthreatened": 6911,
      "Left": 6912,
      "Ġmourning": 6913,
      "Ġtomcat": 6914,
      "Ġashamed": 6915,
      "Ġspilling": 6916,
      "Ġcompanion": 6917,
      "Ġawaits": 6918,
      "Ġsenses": 6919,
      "Ġowl": 6920,
      "Ġfigures": 6921,
      "Ġtemper": 6922,
      "Ġpledged": 6923,
      "Ġvalor": 6924,
      "Ġdepths": 6925,
      "Ġtreasures": 6926,
      "Ġcouncillor": 6927,
      "Ġgargoyles": 6928,
      "Ġmedallion": 6929,
      "OOOO": 6930,
      "Ġtimbered": 6931,
      "Ġwandered": 6932,
      "Ġcostly": 6933,
      "Ġtombs": 6934,
      "Ġroasting": 6935,
      "Ġjewels": 6936,
      "Ġprepare": 6937,
      "Ġfortune": 6938,
      "Ġfarewells": 6939,
      "Ġoppose": 6940,
      "Ġgaze": 6941,
      "Ġgazed": 6942,
      "Ġfluttering": 6943,
      "Ġcradled": 6944,
      "Ġprotest": 6945,
      "Ġterrifying": 6946,
      "Ġhacking": 6947,
      "Ġwinced": 6948,
      "Ġninet": 6949,
      "Ġgranite": 6950,
      "Ġyanking": 6951,
      "Ġkennel": 6952,
      "Ġarrangements": 6953,
      "Ġclangor": 6954,
      "ĠFlement": 6955,
      "Ġgracious": 6956,
      "Ġhoarsely": 6957,
      "Ġwarhorse": 6958,
      "Ġpocket": 6959,
      "Ġretreat": 6960,
      "Ġprivate": 6961,
      "Princess": 6962,
      "lestone": 6963,
      "Ġtimid": 6964,
      "Ġfirmly": 6965,
      "Ġblessed": 6966,
      "Ġsplintered": 6967,
      "Ġapologies": 6968,
      "Ġtransl": 6969,
      "Ġturret": 6970,
      "Ġwriggled": 6971,
      "Ġgaping": 6972,
      "ĠBuilder": 6973,
      "Ġrobes": 6974,
      "Ġunkind": 6975,
      "Ġsneered": 6976,
      "Ġsnorting": 6977,
      "Ġrelieved": 6978,
      "Ġgruffly": 6979,
      "Ġhoofbeats": 6980,
      "Ġdisappointment": 6981,
      "Ġresponded": 6982,
      "Ġdisturbing": 6983,
      "Ġgrotesque": 6984,
      "Ġvengeance": 6985,
      "Ġtension": 6986,
      "Ġwretched": 6987,
      "Ġchicken": 6988,
      "ĠGEORGE": 6989,
      "ĠPeople": 6990,
      "Ġslope": 6991,
      "Wait": 6992,
      "looking": 6993,
      "oubtless": 6994,
      "Ġdignity": 6995,
      "ĠSunset": 6996,
      "Ġshrunken": 6997,
      "Ġslippers": 6998,
      "Ġmustache": 6999,
      "ĠDragonknight": 7000,
      "Ġpursuit": 7001,
      "ĠTallhart": 7002,
      "Jaime": 7003,
      "Ġhorde": 7004,
      "Ġfascination": 7005,
      "Ġmaze": 7006,
      "Ġcunning": 7007,
      "Ġlangu": 7008,
      "itadel": 7009,
      "Ġofttimes": 7010,
      "ĠToday": 7011,
      "ĠTumblestone": 7012,
      "ĠSantagar": 7013,
      "ĠSpider": 7014,
      "ĠSANSA": 7015,
      "Ġrookery": 7016,
      "Ġvanguard": 7017,
      "Ġpostern": 7018,
      "Ġdisbelief": 7019,
      "Ġoathbreaker": 7020,
      "Bet": 7021,
      "Cat": 7022,
      "Com": 7023,
      "Catelyn": 7024,
      "Dra": 7025,
      "Die": 7026,
      "Her": 7027,
      "Hear": 7028,
      "Jhogo": 7029,
      "LORG": 7030,
      "Must": 7031,
      "Ne": 7032,
      "Pe": 7033,
      "Such": 7034,
      "Tom": 7035,
      "UU": 7036,
      "Varys": 7037,
      "Was": 7038,
      "Which": 7039,
      "aved": 7040,
      "bw": 7041,
      "bound": 7042,
      "bear": 7043,
      "bows": 7044,
      "brand": 7045,
      "baked": 7046,
      "beyond": 7047,
      "cre": 7048,
      "cast": 7049,
      "chest": 7050,
      "colored": 7051,
      "deep": 7052,
      "dling": 7053,
      "hh": 7054,
      "har": 7055,
      "hot": 7056,
      "hall": 7057,
      "harys": 7058,
      "ib": 7059,
      "iam": 7060,
      "ipe": 7061,
      "ka": 7062,
      "lk": 7063,
      "lady": 7064,
      "lies": 7065,
      "mulous": 7066,
      "nog": 7067,
      "oes": 7068,
      "ops": 7069,
      "peless": 7070,
      "rat": 7071,
      "spect": 7072,
      "tr": 7073,
      "then": 7074,
      "town": 7075,
      "test": 7076,
      "vest": 7077,
      "vies": 7078,
      "xpected": 7079,
      "Ġ0": 7080,
      "Ġ:": 7081,
      "Ġiced": 7082,
      "Ġtail": 7083,
      "Ġavenge": 7084,
      "Ġwears": 7085,
      "Ġwakes": 7086,
      "Ġwithered": 7087,
      "inite": 7088,
      "Ġhat": 7089,
      "Ġhiding": 7090,
      "eral": 7091,
      "erwyn": 7092,
      "nde": 7093,
      "oup": 7094,
      "Ġber": 7095,
      "Ġbag": 7096,
      "Ġbounc": 7097,
      "Ġbaw": 7098,
      "Ġbaked": 7099,
      "Ġoint": 7100,
      "reast": 7101,
      "regn": 7102,
      "Ġfis": 7103,
      "Ġfest": 7104,
      "Ġfester": 7105,
      "Ġfanc": 7106,
      "Ġfading": 7107,
      "Ġferv": 7108,
      "Ġfrant": 7109,
      "Ġheed": 7110,
      "Ġmull": 7111,
      "Ġmats": 7112,
      "Ġmixed": 7113,
      "Ġcord": 7114,
      "Ġcher": 7115,
      "Ġcere": 7116,
      "Ġcous": 7117,
      "Ġcren": 7118,
      "Ġcries": 7119,
      "atth": 7120,
      "ative": 7121,
      "enys": 7122,
      "enses": 7123,
      "ences": 7124,
      "enya": 7125,
      "Ġtoken": 7126,
      "onn": 7127,
      "Ġlab": 7128,
      "Ġlaced": 7129,
      "Ġlunged": 7130,
      "anks": 7131,
      "anwell": 7132,
      "itch": 7133,
      "itation": 7134,
      "Ġdart": 7135,
      "Ġdully": 7136,
      "Ġdented": 7137,
      "Ġdiam": 7138,
      "asm": 7139,
      "asps": 7140,
      "asily": 7141,
      "Ġthri": 7142,
      "Ġthorn": 7143,
      "Ġnu": 7144,
      "Ġnest": 7145,
      "Ġnipped": 7146,
      "Ġnature": 7147,
      "roken": 7148,
      "Ġgout": 7149,
      "Ġgul": 7150,
      "idence": 7151,
      "ĠTi": 7152,
      "Ġpra": 7153,
      "Ġpul": 7154,
      "Ġpots": 7155,
      "Ġpages": 7156,
      "Ġpalm": 7157,
      "Ġpiles": 7158,
      "ĠSuch": 7159,
      "ĠSisters": 7160,
      "Ġbeha": 7161,
      "Ġbeans": 7162,
      "Ġbehold": 7163,
      "Ġwasted": 7164,
      "Ġwashing": 7165,
      "legged": 7166,
      "leaf": 7167,
      "Ġherds": 7168,
      "Ġstif": 7169,
      "Ġstung": 7170,
      "Ġstrand": 7171,
      "Ġstrik": 7172,
      "Ġstakes": 7173,
      "Ġstump": 7174,
      "Ġstooped": 7175,
      "ĠHas": 7176,
      "aches": 7177,
      "Ġsaun": 7178,
      "Ġsagged": 7179,
      "Ġetern": 7180,
      "Ġke": 7181,
      "oman": 7182,
      "river": 7183,
      "stant": 7184,
      "irmed": 7185,
      "seth": 7186,
      "vered": 7187,
      "ĠLight": 7188,
      "ĠLharys": 7189,
      "raved": 7190,
      "raised": 7191,
      "ĠAh": 7192,
      "ĠAry": 7193,
      "ĠARY": 7194,
      "ceed": 7195,
      "eemed": 7196,
      "Ġrej": 7197,
      "Ġrein": 7198,
      "urs": 7199,
      "ĠBest": 7200,
      "ĠBoy": 7201,
      "ĠBring": 7202,
      "ĠBror": 7203,
      "ĠJared": 7204,
      "ĠJeren": 7205,
      "akka": 7206,
      "ĠWater": 7207,
      "Ġrout": 7208,
      "Ġrum": 7209,
      "Ġrue": 7210,
      "Ġrasped": 7211,
      "ĠMan": 7212,
      "ĠMad": 7213,
      "ĠMay": 7214,
      "ĠMng": 7215,
      "ĠMummer": 7216,
      "elling": 7217,
      "ĠNine": 7218,
      "Ġkneel": 7219,
      "ĠDead": 7220,
      "ĠCu": 7221,
      "ĠCross": 7222,
      "ĠCitadel": 7223,
      "unge": 7224,
      "unts": 7225,
      "Ġlevel": 7226,
      "Ġlevies": 7227,
      "Ġliz": 7228,
      "Ġlicking": 7229,
      "Ġswears": 7230,
      "Ġmane": 7231,
      "Ġmanned": 7232,
      "Ġarran": 7233,
      "Ġarts": 7234,
      "Ġchoke": 7235,
      "Ġchase": 7236,
      "kehall": 7237,
      "Ġneg": 7238,
      "Ġgoss": 7239,
      "Ġseas": 7240,
      "Ġseason": 7241,
      "Ġupst": 7242,
      "Ġupraised": 7243,
      "ĠGLORG": 7244,
      "Ġbroo": 7245,
      "ĠJonos": 7246,
      "Ġvain": 7247,
      "Ġvul": 7248,
      "Ġvint": 7249,
      "Ġvague": 7250,
      "ĠRobett": 7251,
      "Ġspice": 7252,
      "Ġspider": 7253,
      "Ġbox": 7254,
      "Ġboil": 7255,
      "Ġboiling": 7256,
      "Ġsmold": 7257,
      "Ġdeb": 7258,
      "Ġdemon": 7259,
      "Ġdeeds": 7260,
      "ĠStrong": 7261,
      "urning": 7262,
      "Ġagrees": 7263,
      "Ġunn": 7264,
      "Ġunic": 7265,
      "Ġungain": 7266,
      "Ġunmoving": 7267,
      "Ġweas": 7268,
      "Ġweig": 7269,
      "Ġweigh": 7270,
      "ĠPut": 7271,
      "ĠPain": 7272,
      "ĠPart": 7273,
      "ĠPray": 7274,
      "ĠPigg": 7275,
      "ĠPerwyn": 7276,
      "Ġscre": 7277,
      "Ġscout": 7278,
      "Ġscare": 7279,
      "Ġscattering": 7280,
      "Ġflu": 7281,
      "Ġflatter": 7282,
      "Ġflows": 7283,
      "Ġflash": 7284,
      "Ġflurry": 7285,
      "ĠOft": 7286,
      "Ġcombed": 7287,
      "Ġcommented": 7288,
      "oused": 7289,
      "ĠEver": 7290,
      "ĠEroeh": 7291,
      "Ġplo": 7292,
      "Ġplanted": 7293,
      "Ġplunder": 7294,
      "Ġplums": 7295,
      "Ġplague": 7296,
      "Ġjests": 7297,
      "hair": 7298,
      "Ġslap": 7299,
      "Ġslop": 7300,
      "Ġslip": 7301,
      "Ġslipping": 7302,
      "Ġhorror": 7303,
      "Ġoverw": 7304,
      "Ġoverheard": 7305,
      "Ġswordplay": 7306,
      "ĠVery": 7307,
      "Ġtwil": 7308,
      "Ġripping": 7309,
      "Ġmoss": 7310,
      "Ġbloodstained": 7311,
      "Ġrape": 7312,
      "Ġaback": 7313,
      "Ġabashed": 7314,
      "Ġabreast": 7315,
      "Ġwatches": 7316,
      "Ġlobs": 7317,
      "Ġloaded": 7318,
      "Ġgrasping": 7319,
      "Ġbrut": 7320,
      "Ġenc": 7321,
      "Ġenv": 7322,
      "Ġhooting": 7323,
      "Ġhopeless": 7324,
      "Ġhovered": 7325,
      "Ġusually": 7326,
      "medi": 7327,
      "mony": 7328,
      "Ġthroughout": 7329,
      "ulant": 7330,
      "ulating": 7331,
      "Ġglist": 7332,
      "Ġmustach": 7333,
      "Ġamused": 7334,
      "Ġamusing": 7335,
      "Ġwars": 7336,
      "Ġtrace": 7337,
      "Ġtraded": 7338,
      "Ġtracing": 7339,
      "Ġtrunk": 7340,
      "Ġtrunks": 7341,
      "Ġtrousers": 7342,
      "Ġsnakes": 7343,
      "Ġsnarks": 7344,
      "assing": 7345,
      "Ġfos": 7346,
      "Ġfolk": 7347,
      "umes": 7348,
      "Ġhasn": 7349,
      "ĠWhenever": 7350,
      "Ġhorsemen": 7351,
      "Ġhorsehair": 7352,
      "swept": 7353,
      "plight": 7354,
      "place": 7355,
      "played": 7356,
      "Ġdeadly": 7357,
      "Ġsteam": 7358,
      "Ġsteamed": 7359,
      "Ġgodsway": 7360,
      "Ġwindswept": 7361,
      "ĠJoseth": 7362,
      "Ġexe": 7363,
      "ĠHeroes": 7364,
      "Ġcrouched": 7365,
      "ancers": 7366,
      "Ġhalfhelm": 7367,
      "Ġcommanding": 7368,
      "leased": 7369,
      "Ġconce": 7370,
      "abl": 7371,
      "Ġendure": 7372,
      "Ġserp": 7373,
      "Ġserious": 7374,
      "Ġtreated": 7375,
      "Ġtremulous": 7376,
      "Ġfearful": 7377,
      "Ġprob": 7378,
      "Ġprove": 7379,
      "Ġprospect": 7380,
      "Ġfarce": 7381,
      "Ġfarms": 7382,
      "ĠArbor": 7383,
      "ĠYi": 7384,
      "ĠPyke": 7385,
      "Ġdiscipl": 7386,
      "Ġdisplayed": 7387,
      "Ġbedside": 7388,
      "Ġbedding": 7389,
      "Ġcrowds": 7390,
      "Ġsoftened": 7391,
      "Ġsweetly": 7392,
      "Ġpleasantly": 7393,
      "Ġshallow": 7394,
      "Ġcurdled": 7395,
      "Ġcurrent": 7396,
      "iping": 7397,
      "ridden": 7398,
      "Ġsquabb": 7399,
      "Ġsquatted": 7400,
      "Ġremains": 7401,
      "Ġfights": 7402,
      "Ġpained": 7403,
      "Ġpainful": 7404,
      "Ġpainfully": 7405,
      "Ġtramp": 7406,
      "Ġtowered": 7407,
      "ĠInstead": 7408,
      "ailing": 7409,
      "Ġrumbling": 7410,
      "Ġbathe": 7411,
      "Ġskins": 7412,
      "Ġfriendly": 7413,
      "Ġthickly": 7414,
      "Ġdesert": 7415,
      "Ġdeaths": 7416,
      "Ġriverb": 7417,
      "Ġangered": 7418,
      "Ġbites": 7419,
      "Ġearly": 7420,
      "Ġstarve": 7421,
      "Ġvisible": 7422,
      "ĠQohor": 7423,
      "Ġturnips": 7424,
      "Ġbestir": 7425,
      "Ġgreens": 7426,
      "Ġcovering": 7427,
      "Ġwindowless": 7428,
      "mping": 7429,
      "Ġdropping": 7430,
      "clo": 7431,
      "Ġmaesters": 7432,
      "Ġeased": 7433,
      "ĠWillem": 7434,
      "Ġdrilling": 7435,
      "Ġfurther": 7436,
      "Ġrecited": 7437,
      "Ġhunted": 7438,
      "Ġflock": 7439,
      "Ġgalleys": 7440,
      "Ġresent": 7441,
      "Ġsmelly": 7442,
      "Ġdwarfs": 7443,
      "Ġsupple": 7444,
      "Ġsupplies": 7445,
      "Ġshadowcats": 7446,
      "Ġburns": 7447,
      "ĠMohor": 7448,
      "Ġmorningstar": 7449,
      "Ġcrab": 7450,
      "Ġcrabs": 7451,
      "Ġcramping": 7452,
      "Ġbarley": 7453,
      "Ġranging": 7454,
      "ynar": 7455,
      "Ġimpaled": 7456,
      "Ġimpressed": 7457,
      "Ġimpregn": 7458,
      "Ġfastness": 7459,
      "Ġsummons": 7460,
      "fters": 7461,
      "Ġperchance": 7462,
      "Ġamongst": 7463,
      "Ġdiffic": 7464,
      "Ġtrip": 7465,
      "Ġtriump": 7466,
      "Ġseeming": 7467,
      "Ġstructure": 7468,
      "Ġreturns": 7469,
      "Ġstormed": 7470,
      "ĠRedfort": 7471,
      "Ġeyebrow": 7472,
      "Ġaccus": 7473,
      "ĠMarbrand": 7474,
      "Ġvisitor": 7475,
      "Ġgarn": 7476,
      "Ġdefenses": 7477,
      "Ġsickening": 7478,
      "Ġsickroom": 7479,
      "Ġpriest": 7480,
      "Ġarrowhead": 7481,
      "Ġkhalasars": 7482,
      "Ġblindly": 7483,
      "Ġtucked": 7484,
      "Ġlongswords": 7485,
      "Ġlads": 7486,
      "spo": 7487,
      "Ġconsp": 7488,
      "Ġstreams": 7489,
      "Ġtrusting": 7490,
      "forged": 7491,
      "Ġtongues": 7492,
      "Ġreluctantly": 7493,
      "Ġprett": 7494,
      "Ġfeasting": 7495,
      "Ġcells": 7496,
      "Ġcellar": 7497,
      "Ġbury": 7498,
      "Ġmessed": 7499,
      "Ġmessages": 7500,
      "Ġforgets": 7501,
      "Ġcountless": 7502,
      "Ġannoy": 7503,
      "Ġquestioned": 7504,
      "Ġstriped": 7505,
      "Ġechoes": 7506,
      "Ġinterested": 7507,
      "Ġsplash": 7508,
      "Ġhitting": 7509,
      "Ġmagister": 7510,
      "Ġassault": 7511,
      "Ġbusy": 7512,
      "Ġobvious": 7513,
      "Ġmidst": 7514,
      "Ġsmoky": 7515,
      "ĠEverything": 7516,
      "Ġdangled": 7517,
      "Ġthrowing": 7518,
      "Ġmurmuring": 7519,
      "Ġbutchered": 7520,
      "Ġarrival": 7521,
      "Ġfeebly": 7522,
      "Ġignoring": 7523,
      "Ġsourly": 7524,
      "Ġringed": 7525,
      "Ġmeeting": 7526,
      "Ġportly": 7527,
      "Ġpowerful": 7528,
      "Ġclearly": 7529,
      "Ġshaft": 7530,
      "Ġshriek": 7531,
      "Ġwhisperers": 7532,
      "Ġvictor": 7533,
      "Ġfreerider": 7534,
      "Ġbanded": 7535,
      "ĠBroken": 7536,
      "berries": 7537,
      "Ġcatap": 7538,
      "Ġcircling": 7539,
      "fallen": 7540,
      "Ġpadding": 7541,
      "Ġcurtly": 7542,
      "Ġpillows": 7543,
      "Ġrequired": 7544,
      "Ġrespectfully": 7545,
      "Ġbalding": 7546,
      "ĠLeft": 7547,
      "Ġpalanqu": 7548,
      "Ġpatient": 7549,
      "Ġblazed": 7550,
      "Ġunexpected": 7551,
      "Ġuneasily": 7552,
      "Ġfetched": 7553,
      "Ġrattle": 7554,
      "Ġargue": 7555,
      "Ġarguing": 7556,
      "Ġsuitors": 7557,
      "AAAA": 7558,
      "Until": 7559,
      "Ġnumbers": 7560,
      "Ġforbade": 7561,
      "Ġwhistling": 7562,
      "Ġdreadful": 7563,
      "Ġgalloping": 7564,
      "Ġreflection": 7565,
      "Ġcasc": 7566,
      "Ġinvitation": 7567,
      "Ġordinary": 7568,
      "Ġdisgust": 7569,
      "Ġthreaten": 7570,
      "Ġmerchants": 7571,
      "ĠMallisters": 7572,
      "Ġfumbled": 7573,
      "Ġshyly": 7574,
      "Ġpermitted": 7575,
      "Ġpermission": 7576,
      "Ġawait": 7577,
      "Ġsensed": 7578,
      "Ġsenior": 7579,
      "Ġclumsily": 7580,
      "Ġbrooded": 7581,
      "Ġsquirmed": 7582,
      "Ġsquirrel": 7583,
      "Ġcontinue": 7584,
      "Ġestabl": 7585,
      "Ġbaseborn": 7586,
      "Ġfero": 7587,
      "Ġfermented": 7588,
      "Ġpetulant": 7589,
      "Ġpatterns": 7590,
      "ĠLongclaw": 7591,
      "Ġdepart": 7592,
      "Ġunbroken": 7593,
      "Ġgreeted": 7594,
      "Ġjousting": 7595,
      "Ġglowered": 7596,
      "Ġdespite": 7597,
      "Ġtimber": 7598,
      "Ġballs": 7599,
      "Ġfunny": 7600,
      "Ġfuneral": 7601,
      "ĠBrackens": 7602,
      "ĠJustice": 7603,
      "ĠGAME": 7604,
      "Ġfolds": 7605,
      "Ġbrigand": 7606,
      "Another": 7607,
      "Ġnipples": 7608,
      "Ġrows": 7609,
      "Ġsuspect": 7610,
      "Ġsaddles": 7611,
      "Ġgauntlet": 7612,
      "Ġpersonal": 7613,
      "Ġtitle": 7614,
      "Ġtitles": 7615,
      "Ġastonishment": 7616,
      "ĠBesides": 7617,
      "ĠChildren": 7618,
      "Ġdeftly": 7619,
      "Ġslightest": 7620,
      "Ġbristled": 7621,
      "Ġbristling": 7622,
      "Ġtravelers": 7623,
      "Ġmuscles": 7624,
      "Ġfabric": 7625,
      "Ġyawned": 7626,
      "Ġkennels": 7627,
      "ĠFlea": 7628,
      "Ġgraciously": 7629,
      "Ġengraved": 7630,
      "Ġwarhorses": 7631,
      "Ġchewing": 7632,
      "Ġgloomy": 7633,
      "Shall": 7634,
      "Ġobsc": 7635,
      "Ġobsidian": 7636,
      "Ġcrannog": 7637,
      "Ġstaggered": 7638,
      "Ġwhimpered": 7639,
      "Ġquivering": 7640,
      "Ġdrafty": 7641,
      "Ġcaravan": 7642,
      "Ġcaravans": 7643,
      "Ġpuffed": 7644,
      "Ġburdens": 7645,
      "Ġcooked": 7646,
      "Ġcotton": 7647,
      "Ġbefits": 7648,
      "Ġevil": 7649,
      "Ġhaunch": 7650,
      "Ġjape": 7651,
      "Ġtwitched": 7652,
      "Ġexamined": 7653,
      "Ġreports": 7654,
      "Ġwaddled": 7655,
      "Ġpikemen": 7656,
      "ĠHelman": 7657,
      "ĠRhoynar": 7658,
      "Ġconvinc": 7659,
      "Ġearnest": 7660,
      "Ġdrooping": 7661,
      "Ġgarrons": 7662,
      "Ġincredulous": 7663,
      "Quiet": 7664,
      "Shagga": 7665,
      "Ġsurnmer": 7666,
      "Ġbreeches": 7667,
      "Ġprancing": 7668,
      "Ġwhickered": 7669,
      "ĠWaynwood": 7670,
      "Ġchorus": 7671,
      "Ġchafed": 7672,
      "Ġseventeen": 7673,
      "Ġdefeat": 7674,
      "ĠElia": 7675,
      "Ġreddening": 7676,
      "Ġextra": 7677,
      "Ġfirepits": 7678,
      "Ġfreedom": 7679,
      "Ġentirely": 7680,
      "Ġaverted": 7681,
      "Ġwistfully": 7682,
      "Ġlamplight": 7683,
      "Ġhistory": 7684,
      "Ġstitches": 7685,
      "Ġforfeit": 7686,
      "ĠCrakehall": 7687,
      "Ġseparate": 7688,
      "Ġvirgin": 7689,
      "Ġaltar": 7690,
      "Ġsullenly": 7691,
      "Ġscalding": 7692,
      "ĠVisenya": 7693,
      "Ġperfect": 7694,
      "Ġmisshapen": 7695,
      "Ġmockingbird": 7696,
      "Ġnineteen": 7697,
      "Ġbouncing": 7698,
      "Ġbawdy": 7699,
      "Ġfrantic": 7700,
      "Ġmulled": 7701,
      "Ġceremony": 7702,
      "Ġcousin": 7703,
      "atthar": 7704,
      "Ġdiamond": 7705,
      "Ġsauntered": 7706,
      "ĠArys": 7707,
      "ĠARYA": 7708,
      "ĠBrorm": 7709,
      "ĠCrossing": 7710,
      "Ġarranged": 7711,
      "Ġvintage": 7712,
      "Ġunicorn": 7713,
      "Ġungainly": 7714,
      "Ġweighed": 7715,
      "ĠPiggy": 7716,
      "Ġlobstered": 7717,
      "Ġimpregnable": 7718,
      "Ġtriumph": 7719,
      "Ġpalanquin": 7720,
      ".'": 7721,
      "After": 7722,
      "Aye": 7723,
      "Both": 7724,
      "Cer": 7725,
      "Call": 7726,
      "DA": 7727,
      "Eight": 7728,
      "Find": 7729,
      "Grey": 7730,
      "Home": 7731,
      "Half": 7732,
      "Iord": 7733,
      "Irri": 7734,
      "Inde": 7735,
      "Like": 7736,
      "Liar": 7737,
      "Listen": 7738,
      "Me": 7739,
      "NI": 7740,
      "Oft": 7741,
      "Po": 7742,
      "Py": 7743,
      "Pray": 7744,
      "Rise": 7745,
      "Renly": 7746,
      "Sil": 7747,
      "Surely": 7748,
      "Tr": 7749,
      "Try": 7750,
      "Turn": 7751,
      "Wall": 7752,
      "Wine": 7753,
      "aith": 7754,
      "bo": 7755,
      "bag": 7756,
      "bane": 7757,
      "cess": 7758,
      "cest": 7759,
      "cence": 7760,
      "cause": 7761,
      "castle": 7762,
      "dg": 7763,
      "do": 7764,
      "dark": 7765,
      "ection": 7766,
      "fere": 7767,
      "fied": 7768,
      "gran": 7769,
      "grow": 7770,
      "grand": 7771,
      "gthen": 7772,
      "had": 7773,
      "iance": 7774,
      "iated": 7775,
      "iably": 7776,
      "iature": 7777,
      "kar": 7778,
      "lit": 7779,
      "lain": 7780,
      "lered": 7781,
      "lts": 7782,
      "laz": 7783,
      "liness": 7784,
      "male": 7785,
      "master": 7786,
      "much": 7787,
      "mplate": 7788,
      "nes": 7789,
      "nants": 7790,
      "nosed": 7791,
      "oid": 7792,
      "oples": 7793,
      "ph": 7794,
      "pawn": 7795,
      "packed": 7796,
      "pressed": 7797,
      "rite": 7798,
      "ration": 7799,
      "ract": 7800,
      "say": 7801,
      "there": 7802,
      "tched": 7803,
      "thes": 7804,
      "times": 7805,
      "uated": 7806,
      "ubs": 7807,
      "uffled": 7808,
      "urochs": 7809,
      "when": 7810,
      "yr": 7811,
      "yft": 7812,
      "zare": 7813,
      "Ġ,,": 7814,
      "heart": 7815,
      "hewn": 7816,
      "Ġta": 7817,
      "Ġtin": 7818,
      "Ġted": 7819,
      "Ġting": 7820,
      "Ġtast": 7821,
      "Ġtest": 7822,
      "Ġtire": 7823,
      "Ġtapped": 7824,
      "Ġtact": 7825,
      "Ġtipped": 7826,
      "Ġtiar": 7827,
      "Ġtarts": 7828,
      "Ġtumble": 7829,
      "Ġtumbling": 7830,
      "Ġamb": 7831,
      "Ġwre": 7832,
      "Ġwick": 7833,
      "Ġwaving": 7834,
      "ints": 7835,
      "Ġhys": 7836,
      "Ġhull": 7837,
      "Ġhook": 7838,
      "Ġhates": 7839,
      "Ġhides": 7840,
      "ero": 7841,
      "nds": 7842,
      "Ġbun": 7843,
      "Ġbide": 7844,
      "Ġbush": 7845,
      "Ġbattered": 7846,
      "Ġbony": 7847,
      "Ġbott": 7848,
      "Ġbounced": 7849,
      "Ġod": 7850,
      "Ġoar": 7851,
      "Ġomen": 7852,
      "rek": 7853,
      "ision": 7854,
      "isible": 7855,
      "Ġfain": 7856,
      "Ġfurn": 7857,
      "Ġfang": 7858,
      "Ġfired": 7859,
      "Ġfuck": 7860,
      "Ġfingered": 7861,
      "Ġfanned": 7862,
      "Ġfumbling": 7863,
      "Ġheft": 7864,
      "Ġheap": 7865,
      "Ġming": 7866,
      "Ġmild": 7867,
      "Ġmars": 7868,
      "Ġmale": 7869,
      "orously": 7870,
      "orian": 7871,
      "Ġcarts": 7872,
      "Ġcalf": 7873,
      "enced": 7874,
      "Ġtoe": 7875,
      "Ġtones": 7876,
      "arr": 7877,
      "arter": 7878,
      "arth": 7879,
      "Ġlid": 7880,
      "Ġlent": 7881,
      "Ġlaw": 7882,
      "Ġlashed": 7883,
      "Ġlakes": 7884,
      "Ġlaws": 7885,
      "Ġlaps": 7886,
      "Ġlancers": 7887,
      "itting": 7888,
      "itious": 7889,
      "itically": 7890,
      "Ġder": 7891,
      "Ġdet": 7892,
      "Ġdue": 7893,
      "Ġdumb": 7894,
      "Ġdaring": 7895,
      "Ġdicing": 7896,
      "Ġdarted": 7897,
      "asper": 7898,
      "Ġoft": 7899,
      "Ġthump": 7900,
      "Ġner": 7901,
      "Ġnon": 7902,
      "Ġnests": 7903,
      "Ġnails": 7904,
      "Ġnonetheless": 7905,
      "rove": 7906,
      "robe": 7907,
      "Ġgir": 7908,
      "Ġgained": 7909,
      "ĠTw": 7910,
      "ĠTand": 7911,
      "Ġhiss": 7912,
      "Ġhissing": 7913,
      "Ġyow": 7914,
      "Ġph": 7915,
      "Ġpear": 7916,
      "Ġpome": 7917,
      "Ġprey": 7918,
      "Ġpies": 7919,
      "Ġpred": 7920,
      "Ġpants": 7921,
      "Ġpatched": 7922,
      "Ġpowers": 7923,
      "Ġpatted": 7924,
      "Ġpouch": 7925,
      "iming": 7926,
      "Ġinj": 7927,
      "Ġinher": 7928,
      "Ġinch": 7929,
      "ĠShow": 7930,
      "ĠSmo": 7931,
      "Ġbees": 7932,
      "Ġwast": 7933,
      "oted": 7934,
      "otch": 7935,
      "Ġherbs": 7936,
      "Ġherbw": 7937,
      "ĠIbb": 7938,
      "Ġsty": 7939,
      "Ġstalk": 7940,
      "Ġstring": 7941,
      "Ġstores": 7942,
      "ĠHard": 7943,
      "ĠHight": 7944,
      "ĠHost": 7945,
      "ĠHouses": 7946,
      "ĠHorse": 7947,
      "Ġsap": 7948,
      "Ġsailed": 7949,
      "Ġsaving": 7950,
      "Ġsails": 7951,
      "Ġasks": 7952,
      "Ġem": 7953,
      "Ġeleg": 7954,
      "veling": 7955,
      "Ġko": 7956,
      "ommo": 7957,
      "rig": 7958,
      "stand": 7959,
      "strong": 7960,
      "Ġhagg": 7961,
      "hered": 7962,
      "iths": 7963,
      "Ġwithstand": 7964,
      "ethy": 7965,
      "uty": 7966,
      "utious": 7967,
      "ĠLate": 7968,
      "ĠLha": 7969,
      "ĠLaughter": 7970,
      "rails": 7971,
      "Ġfors": 7972,
      "ĠAng": 7973,
      "ĠAsh": 7974,
      "ĠAurochs": 7975,
      "Ġwhim": 7976,
      "ardon": 7977,
      "Ġshuffled": 7978,
      "eem": 7979,
      "eeter": 7980,
      "Ġree": 7981,
      "Ġrev": 7982,
      "Ġrearing": 7983,
      "Ġreserve": 7984,
      "urt": 7985,
      "ĠBack": 7986,
      "ĠBull": 7987,
      "ĠBless": 7988,
      "ĠBrun": 7989,
      "ĠJacks": 7990,
      "ĠJommo": 7991,
      "enth": 7992,
      "ĠWester": 7993,
      "ĠWomen": 7994,
      "ĠWomb": 7995,
      "ĠWitch": 7996,
      "ĠRy": 7997,
      "ĠRel": 7998,
      "ĠRang": 7999,
      "ĠRush": 8000,
      "ĠRider": 8001,
      "ilts": 8002,
      "ility": 8003,
      "Ġrace": 8004,
      "Ġrhy": 8005,
      "Ġrounded": 8006,
      "Ġrash": 8007,
      "Ġrasp": 8008,
      "Ġrusted": 8009,
      "ĠMace": 8010,
      "ĠMud": 8011,
      "ĠMatthar": 8012,
      "ells": 8013,
      "Ġblast": 8014,
      "Ġblushed": 8015,
      "Ġblush": 8016,
      "Ġblowing": 8017,
      "Ġislands": 8018,
      "Ġknot": 8019,
      "ĠDe": 8020,
      "ĠDist": 8021,
      "ĠDeath": 8022,
      "ĠDickon": 8023,
      "ĠDoubtless": 8024,
      "ĠDanwell": 8025,
      "ĠDuty": 8026,
      "asty": 8027,
      "children": 8028,
      "ĠCr": 8029,
      "ĠClose": 8030,
      "Ġsoak": 8031,
      "Ġsofter": 8032,
      "Ġsobs": 8033,
      "Ġleveled": 8034,
      "Ġnodding": 8035,
      "Ġswine": 8036,
      "Ġsweeter": 8037,
      "inded": 8038,
      "inder": 8039,
      "Ġmanure": 8040,
      "Ġmantic": 8041,
      "Ġarched": 8042,
      "Ġcling": 8043,
      "Ġclay": 8044,
      "Ġclinging": 8045,
      "Ġclasp": 8046,
      "Ġclanging": 8047,
      "Ġclinking": 8048,
      "Ġcluster": 8049,
      "Ġclubs": 8050,
      "Ġchis": 8051,
      "Ġchunks": 8052,
      "ppet": 8053,
      "Ġyourselves": 8054,
      "Ġgoble": 8055,
      "quently": 8056,
      "ĠShepher": 8057,
      "aceless": 8058,
      "Ġrond": 8059,
      "Ġoutcro": 8060,
      "ĠGro": 8061,
      "ĠGood": 8062,
      "ĠGurn": 8063,
      "ĠGuard": 8064,
      "ĠGates": 8065,
      "ĠGiant": 8066,
      "Ġvests": 8067,
      "Ġvio": 8068,
      "Ġbog": 8069,
      "Ġboat": 8070,
      "Ġboom": 8071,
      "Ġbogs": 8072,
      "Ġbolt": 8073,
      "Ġboasted": 8074,
      "Ġsmear": 8075,
      "Ġsmash": 8076,
      "Ġsmarter": 8077,
      "Ġdece": 8078,
      "Ġdeaf": 8079,
      "ledge": 8080,
      "rud": 8081,
      "ĠFo": 8082,
      "ĠFly": 8083,
      "ĠFord": 8084,
      "ĠFier": 8085,
      "ĠFifteen": 8086,
      "ĠFaceless": 8087,
      "estion": 8088,
      "Ġalto": 8089,
      "Ġsuc": 8090,
      "Ġunable": 8091,
      "Ġunaw": 8092,
      "Ġunfast": 8093,
      "Ġunruly": 8094,
      "Ġquipped": 8095,
      "Ġgreasy": 8096,
      "ĠPort": 8097,
      "ĠPale": 8098,
      "ĠPact": 8099,
      "Ġscents": 8100,
      "Ġscaled": 8101,
      "Ġscooped": 8102,
      "Ġflank": 8103,
      "Ġflush": 8104,
      "Ġflashing": 8105,
      "Ġflaming": 8106,
      "Ġflanked": 8107,
      "Ġflutter": 8108,
      "ĠOak": 8109,
      "ĠOff": 8110,
      "ĠOsw": 8111,
      "ĠOotho": 8112,
      "ĠOpen": 8113,
      "Ġcomment": 8114,
      "Ġoffense": 8115,
      "tops": 8116,
      "Ġcop": 8117,
      "Ġcond": 8118,
      "Ġcoif": 8119,
      "Ġplac": 8120,
      "Ġplenty": 8121,
      "Ġplates": 8122,
      "Ġplaint": 8123,
      "Ġplaza": 8124,
      "Ġplanning": 8125,
      "Ġjar": 8126,
      "Ġjut": 8127,
      "Ġjoke": 8128,
      "Ġjump": 8129,
      "Ġfathers": 8130,
      "Ġslu": 8131,
      "Ġslab": 8132,
      "Ġslither": 8133,
      "dder": 8134,
      "mbly": 8135,
      "mborn": 8136,
      "Ġoverlooking": 8137,
      "Ġovercast": 8138,
      "Ġlonging": 8139,
      "oths": 8140,
      "othills": 8141,
      "ics": 8142,
      "usion": 8143,
      "Ġribb": 8144,
      "Ġmoles": 8145,
      "Ġbloodflies": 8146,
      "Ġram": 8147,
      "Ġrail": 8148,
      "Ġraged": 8149,
      "Ġraining": 8150,
      "Ġraiding": 8151,
      "Ġraising": 8152,
      "agard": 8153,
      "Ġabsur": 8154,
      "Ġwatchers": 8155,
      "Ġlog": 8156,
      "Ġlock": 8157,
      "Ġloft": 8158,
      "Ġloving": 8159,
      "Ġlocked": 8160,
      "itement": 8161,
      "onsense": 8162,
      "Ġbrindled": 8163,
      "avy": 8164,
      "Ġshouldered": 8165,
      "Ġushered": 8166,
      "Ġdaybreak": 8167,
      "ults": 8168,
      "Ġcanop": 8169,
      "Ġglint": 8170,
      "Ġamiss": 8171,
      "Ġamethy": 8172,
      "pend": 8173,
      "peakable": 8174,
      "Ġpocked": 8175,
      "Ġpoking": 8176,
      "Ġsnigg": 8177,
      "Ġsnoring": 8178,
      "Ġfoes": 8179,
      "Ġfoothills": 8180,
      "uments": 8181,
      "Ġdragging": 8182,
      "Ġdrapes": 8183,
      "Ġwanting": 8184,
      "ighter": 8185,
      "Ġhorselord": 8186,
      "swer": 8187,
      "Ġanybody": 8188,
      "ĠAndal": 8189,
      "Ġmuss": 8190,
      "Ġneeding": 8191,
      "angled": 8192,
      "irls": 8193,
      "ishly": 8194,
      "Ġskirt": 8195,
      "Ġskills": 8196,
      "ĠJoss": 8197,
      "Ġcheered": 8198,
      "Ġbegins": 8199,
      "Ġhairs": 8200,
      "Ġgoods": 8201,
      "Ġexcellent": 8202,
      "Ġwailed": 8203,
      "Ġwailing": 8204,
      "Myc": 8205,
      "osite": 8206,
      "osity": 8207,
      "ĠThink": 8208,
      "Ġcrone": 8209,
      "Ġcrashing": 8210,
      "Ġcritically": 8211,
      "ancy": 8212,
      "Ġtruce": 8213,
      "Ġopenly": 8214,
      "Ġconte": 8215,
      "Ġconcl": 8216,
      "Ġcoldness": 8217,
      "abor": 8218,
      "Ġprec": 8219,
      "Ġprev": 8220,
      "Ġserves": 8221,
      "Ġtread": 8222,
      "Ġprodu": 8223,
      "Ġpeer": 8224,
      "Ġpecked": 8225,
      "Ġpeppers": 8226,
      "Ġpeaks": 8227,
      "Ġpeoples": 8228,
      "Ġkiller": 8229,
      "Ġkillers": 8230,
      "Ġlightest": 8231,
      "Ġstonem": 8232,
      "ĠAround": 8233,
      "Ġrealms": 8234,
      "hog": 8235,
      "Ġsentry": 8236,
      "Ġfinds": 8237,
      "Ġresting": 8238,
      "ĠMormonts": 8239,
      "Ġmounting": 8240,
      "Ġbeds": 8241,
      "Ġbedded": 8242,
      "Ġsweetness": 8243,
      "Ġsweetgr": 8244,
      "Ġmouths": 8245,
      "Ġfeigned": 8246,
      "Ġfemale": 8247,
      "Ġcurs": 8248,
      "Ġcurve": 8249,
      "Ġcurved": 8250,
      "Ġcurling": 8251,
      "Ġcurving": 8252,
      "Ġimpl": 8253,
      "Ġimmedi": 8254,
      "Ġgrowl": 8255,
      "Ġsquaw": 8256,
      "Ġsquinted": 8257,
      "Ġshadowed": 8258,
      "Ġremnants": 8259,
      "Ġfalls": 8260,
      "ĠBarra": 8261,
      "Ġfeels": 8262,
      "Ġpaint": 8263,
      "Ġtraveling": 8264,
      "Ġdirectly": 8265,
      "Ġsurer": 8266,
      "Ġsurre": 8267,
      "Ġanswering": 8268,
      "Ġruffled": 8269,
      "Ġpassion": 8270,
      "Ġspeed": 8271,
      "Ġspeckled": 8272,
      "azed": 8273,
      "ĠBronze": 8274,
      "Ġsets": 8275,
      "Ġranks": 8276,
      "Ġtallest": 8277,
      "Ġpointy": 8278,
      "Ġdesol": 8279,
      "Ġscary": 8280,
      "Ġtruths": 8281,
      "Ġfiner": 8282,
      "Ġforefinger": 8283,
      "Ġforester": 8284,
      "Ġelabor": 8285,
      "Ġappears": 8286,
      "Ġcupped": 8287,
      "Ġnaming": 8288,
      "Ġnameless": 8289,
      "ĠBlount": 8290,
      "Ġsigns": 8291,
      "ĠSeagard": 8292,
      "Ġbattlefield": 8293,
      "ĠOldtown": 8294,
      "Ġturnip": 8295,
      "Ġgraves": 8296,
      "Ġgravel": 8297,
      "Ġgrabbing": 8298,
      "clothes": 8299,
      "Ġfootp": 8300,
      "Ġfooting": 8301,
      "Ġstallions": 8302,
      "Ġhunched": 8303,
      "Ġnearby": 8304,
      "Ġstopping": 8305,
      "Ġresc": 8306,
      "Ġresolved": 8307,
      "Ġsupply": 8308,
      "Ġhomely": 8309,
      "Ġmetals": 8310,
      "Ġstrain": 8311,
      "Ġcouncils": 8312,
      "olded": 8313,
      "Ġgrassy": 8314,
      "Ġcrawl": 8315,
      "Ġinspect": 8316,
      "Ġwalkers": 8317,
      "Ġbaring": 8318,
      "Ġbarbed": 8319,
      "Ġbarrows": 8320,
      "Ġbarrel": 8321,
      "Ġcreak": 8322,
      "Ġcreaking": 8323,
      "Ġcrested": 8324,
      "Ġrangings": 8325,
      "Ġhunger": 8326,
      "Ġemptiness": 8327,
      "Ġfreely": 8328,
      "Ġfreezing": 8329,
      "Ġdaggers": 8330,
      "Ġtenth": 8331,
      "Ġperched": 8332,
      "Ġperform": 8333,
      "Isn": 8334,
      "Ġtripped": 8335,
      "Ġtriang": 8336,
      "Ġwhel": 8337,
      "Ġwhet": 8338,
      "Ġwinning": 8339,
      "Ġwinner": 8340,
      "Ġcrude": 8341,
      "Ġpuppet": 8342,
      "Ġstruggle": 8343,
      "Ġawed": 8344,
      "ĠDoor": 8345,
      "ĠDoes": 8346,
      "Ġloudest": 8347,
      "Ġinns": 8348,
      "Ġwatcht": 8349,
      "Ġbrick": 8350,
      "ĠHowland": 8351,
      "Ġbravos": 8352,
      "Ġthinly": 8353,
      "Ġconfront": 8354,
      "Ġconfirmed": 8355,
      "umbered": 8356,
      "Ġstaying": 8357,
      "Ġcaptains": 8358,
      "ĠMarches": 8359,
      "Ġgarments": 8360,
      "Ġpraying": 8361,
      "Ġdefy": 8362,
      "Ġdefor": 8363,
      "Ġmute": 8364,
      "Ġprick": 8365,
      "ĠBryce": 8366,
      "Ġharness": 8367,
      "Ġharvest": 8368,
      "Ġrises": 8369,
      "Ġscraped": 8370,
      "Ġsixty": 8371,
      "Ġladder": 8372,
      "ĠOtherwise": 8373,
      "ĠQuent": 8374,
      "Ġwetness": 8375,
      "Ġsaddlebag": 8376,
      "ĠSwyft": 8377,
      "Soon": 8378,
      "Ġsweating": 8379,
      "Ġmovements": 8380,
      "Ġpays": 8381,
      "Ġmassing": 8382,
      "Ġcouple": 8383,
      "Ġfeasts": 8384,
      "blond": 8385,
      "Ġcellars": 8386,
      "Ġgroping": 8387,
      "Ġguess": 8388,
      "Ġguilt": 8389,
      "ĠShall": 8390,
      "Ġheadsman": 8391,
      "Ġbleak": 8392,
      "Ġembraced": 8393,
      "Ġemblaz": 8394,
      "Ġembarr": 8395,
      "Ġcharred": 8396,
      "Ġrainbow": 8397,
      "Ġtorchlight": 8398,
      "Ġwhorehouse": 8399,
      "Ġwhorehouses": 8400,
      "Ġprotectively": 8401,
      "Ġinterfere": 8402,
      "Ġhammers": 8403,
      "Ġglimmered": 8404,
      "Ġsurrounding": 8405,
      "Ġtune": 8406,
      "Ġhealer": 8407,
      "Ġswallowing": 8408,
      "Ġcontent": 8409,
      "Ġstubbly": 8410,
      "Ġfists": 8411,
      "ĠReed": 8412,
      "ĠFlorian": 8413,
      "horse": 8414,
      "Ġdangling": 8415,
      "ĠCheyk": 8416,
      "Ġspearmen": 8417,
      "Ġexplode": 8418,
      "soaked": 8419,
      "Ġcracking": 8420,
      "Ġcrackled": 8421,
      "Ġcrackling": 8422,
      "Ġmurmur": 8423,
      "Ġsorcer": 8424,
      "Ġsavory": 8425,
      "ĠMago": 8426,
      "Ġarrive": 8427,
      "Ġfeelings": 8428,
      "Ġgrizzled": 8429,
      "Ġbridges": 8430,
      "Ġignor": 8431,
      "Ġsourleaf": 8432,
      "Ġhumil": 8433,
      "Ġgrandson": 8434,
      "Ġstableboys": 8435,
      "ĠNorvos": 8436,
      "Ġtricks": 8437,
      "Ġcandles": 8438,
      "Ġjugg": 8439,
      "Ġshutters": 8440,
      "Ġthankful": 8441,
      "nerable": 8442,
      "Ġhoneyed": 8443,
      "Ġfitting": 8444,
      "Ġmarks": 8445,
      "Ġplead": 8446,
      "Ġshaved": 8447,
      "Ġwhisperings": 8448,
      "Ġoaken": 8449,
      "Ġfifth": 8450,
      "Ġeagle": 8451,
      "Ġentry": 8452,
      "Ġentrails": 8453,
      "Ġtangles": 8454,
      "Ġframed": 8455,
      "Ġstraightened": 8456,
      "Ġtroubles": 8457,
      "Ġexcused": 8458,
      "Ġexcuse": 8459,
      "Ġexcitement": 8460,
      "Ġconfession": 8461,
      "Ġpouring": 8462,
      "Ġplainly": 8463,
      "Ġmonkey": 8464,
      "Ġpigs": 8465,
      "Ġundid": 8466,
      "Ġundressed": 8467,
      "ĠAlways": 8468,
      "ĠAlmost": 8469,
      "Ġroofs": 8470,
      "Ġrooftops": 8471,
      "Ġveined": 8472,
      "Ġfaltered": 8473,
      "Ġfalcon": 8474,
      "Ġpillow": 8475,
      "Ġrequires": 8476,
      "ĠBeth": 8477,
      "Ġchampions": 8478,
      "ĠStormborn": 8479,
      "Ġdiscovered": 8480,
      "Ġwrithed": 8481,
      "Ġpotboy": 8482,
      "Ġincomes": 8483,
      "Ġrustle": 8484,
      "ĠDaryn": 8485,
      "Ġspirit": 8486,
      "Ġflicker": 8487,
      "Ġflickered": 8488,
      "Ġpoisoned": 8489,
      "Ġruby": 8490,
      "Ġcentury": 8491,
      "Ġpalace": 8492,
      "Ġpalaces": 8493,
      "Ġpersu": 8494,
      "Ġpatiently": 8495,
      "Ġformal": 8496,
      "Ġblaze": 8497,
      "Ġblazing": 8498,
      "Ġuneven": 8499,
      "Ġuneasy": 8500,
      "Ġbelongs": 8501,
      "namon": 8502,
      "Ġfilm": 8503,
      "Ġcounse": 8504,
      "Ġshifting": 8505,
      "Ġrattled": 8506,
      "Ġrattling": 8507,
      "Ġsuitable": 8508,
      "ĠMychel": 8509,
      "Ġwineskin": 8510,
      "Ġmagical": 8511,
      "Unless": 8512,
      "Ġtearing": 8513,
      "Ġafford": 8514,
      "Ġaffection": 8515,
      "Ġwardrobe": 8516,
      "Ġpinch": 8517,
      "Ġpinned": 8518,
      "Ġstretch": 8519,
      "Ġwhistle": 8520,
      "Ġslaughtering": 8521,
      "Ġbuckled": 8522,
      "ĠBraavosi": 8523,
      "ĠGlovers": 8524,
      "Before": 8525,
      "Ġinvisible": 8526,
      "Ġstaun": 8527,
      "Ġkissing": 8528,
      "Ġshudder": 8529,
      "Ġdisgusted": 8530,
      "Ġfurious": 8531,
      "ĠHornwoods": 8532,
      "Ġantlered": 8533,
      "Ġoutlaw": 8534,
      "Ġagreement": 8535,
      "Ġperfumed": 8536,
      "Ġperfumes": 8537,
      "Ġcushion": 8538,
      "Ġscowling": 8539,
      "Ġripples": 8540,
      "Ġmoisture": 8541,
      "Ġsquirming": 8542,
      "Ġcourtyards": 8543,
      "Ġinstructed": 8544,
      "Ġviews": 8545,
      "Ġestate": 8546,
      "Ġalehouse": 8547,
      "Ġpunish": 8548,
      "Ġstares": 8549,
      "Ġsevered": 8550,
      "Ġunbidden": 8551,
      "Ġtreasury": 8552,
      "ĠTHRONES": 8553,
      "carlet": 8554,
      "Ġbarking": 8555,
      "Ġmentioned": 8556,
      "Ġdrum": 8557,
      "Ġshelters": 8558,
      "ĠWendish": 8559,
      "Ġbundles": 8560,
      "Ġimportance": 8561,
      "Ġcustomary": 8562,
      "Ġhoning": 8563,
      "Ġopposite": 8564,
      "Ġdizzily": 8565,
      "Ġgleamed": 8566,
      "Ġinfant": 8567,
      "ĠCoratt": 8568,
      "Ġunlike": 8569,
      "Ġunlucky": 8570,
      "Ġglitter": 8571,
      "Ġsavagely": 8572,
      "oooooooooooooooo": 8573,
      "Ġfaithfully": 8574,
      "aturally": 8575,
      "Ġversion": 8576,
      "Ġhedgehog": 8577,
      "Ġminiature": 8578,
      "Ġsausages": 8579,
      "Ġastonished": 8580,
      "Ġbluntly": 8581,
      "Ġpossibly": 8582,
      "Ġimpatient": 8583,
      "Ġimpatience": 8584,
      "Ġimpatiently": 8585,
      "Ġmuscular": 8586,
      "Ġbaskets": 8587,
      "Ġfabulous": 8588,
      "Ġfacedown": 8589,
      "Ġcamped": 8590,
      "Ġninety": 8591,
      "Ġindigo": 8592,
      "Ġshimmered": 8593,
      "Ġshimmering": 8594,
      "Ġrebu": 8595,
      "Ġjesting": 8596,
      "Ġabsence": 8597,
      "Ġenjoying": 8598,
      "Ġwidow": 8599,
      "Ġposted": 8600,
      "ĠSilence": 8601,
      "Ġstaggering": 8602,
      "Ġwhimpering": 8603,
      "Ġmeasure": 8604,
      "Ġmournful": 8605,
      "Ġmournfully": 8606,
      "Ġtournament": 8607,
      "Ġtournaments": 8608,
      "Ġavoid": 8609,
      "Ġgenerous": 8610,
      "Ġclouded": 8611,
      "Ġchallenge": 8612,
      "Ġsprout": 8613,
      "Ġponderous": 8614,
      "Ġponderously": 8615,
      "Ġpeasant": 8616,
      "Ġaccomp": 8617,
      "Ġtownsfolk": 8618,
      "Ġsidest": 8619,
      "Ġbasin": 8620,
      "Ġpanic": 8621,
      "ĠHugh": 8622,
      "ĠHuge": 8623,
      "Ġtreachery": 8624,
      "Ġtreacherous": 8625,
      "Ġguffawed": 8626,
      "Ġmislaid": 8627,
      "Ġtarget": 8628,
      "Ġborder": 8629,
      "Ġcinnamon": 8630,
      "Ġcongrat": 8631,
      "Ġdrowned": 8632,
      "Ġincluded": 8633,
      "Ġankle": 8634,
      "Ġnoisily": 8635,
      "Ġswimming": 8636,
      "Ġunseen": 8637,
      "Ġweathered": 8638,
      "Ġhorrified": 8639,
      "Ġconquest": 8640,
      "Ġappointments": 8641,
      "Ġrecruits": 8642,
      "Ġinsolence": 8643,
      "Ġbarrowlands": 8644,
      "Ġparapets": 8645,
      "Ġexploded": 8646,
      "Ġdestroyed": 8647,
      "Rhaegar": 8648,
      "Spare": 8649,
      "Sometimes": 8650,
      "Ġvenison": 8651,
      "Ġtroops": 8652,
      "Ġtrencher": 8653,
      "Ġtavern": 8654,
      "Ġaisle": 8655,
      "Ġbazaar": 8656,
      "Ġmotley": 8657,
      "struck": 8658,
      "Ġwithdrew": 8659,
      "Ġreveal": 8660,
      "Ġreceive": 8661,
      "ĠWorld": 8662,
      "ĠWordlessly": 8663,
      "Ġknuckles": 8664,
      "ĠCaron": 8665,
      "Ġswaying": 8666,
      "Ġvigil": 8667,
      "Ġsmirking": 8668,
      "Ġscythes": 8669,
      "Ġexhausted": 8670,
      "tempered": 8671,
      "Ġappetite": 8672,
      "Ġcramped": 8673,
      "Ġpurpose": 8674,
      "Ġcontrol": 8675,
      "Ġkennelmaster": 8676,
      "Peace": 8677,
      "Tomorrow": 8678,
      "bearer": 8679,
      "crested": 8680,
      "initely": 8681,
      "Ġfisher": 8682,
      "Ġdarting": 8683,
      "Ġpraise": 8684,
      "Ġpulpit": 8685,
      "Ġstriking": 8686,
      "Ġrejoin": 8687,
      "Ġlizard": 8688,
      "Ġvulnerable": 8689,
      "Ġdebts": 8690,
      "Ġweighing": 8691,
      "Ġscrewed": 8692,
      "Ġflatterers": 8693,
      "Ġoverwhel": 8694,
      "Ġfostered": 8695,
      "Ġserpent": 8696,
      "Ġprobably": 8697,
      "Ġriverbank": 8698,
      "Ġaccusation": 8699,
      "spoken": 8700,
      "Ġannoyed": 8701,
      "Ġsurnmerwine": 8702,
      "Ġdiamonds": 8703,
      "Cersei": 8704,
      "Indeed": 8705,
      "zareen": 8706,
      "Ġtedious": 8707,
      "Ġtiara": 8708,
      "Ġwreathed": 8709,
      "Ġhyster": 8710,
      "Ġbottles": 8711,
      "Ġfainter": 8712,
      "ĠTanda": 8713,
      "Ġpomegran": 8714,
      "Ġherbwomen": 8715,
      "ĠIbben": 8716,
      "ĠHightower": 8717,
      "ĠHosteen": 8718,
      "Ġelegant": 8719,
      "ĠLhazareen": 8720,
      "ĠBlessed": 8721,
      "ĠBrune": 8722,
      "ĠReluctantly": 8723,
      "Ġmanticores": 8724,
      "ĠShepherd": 8725,
      "Ġviolet": 8726,
      "ĠFierce": 8727,
      "Ġaltogether": 8728,
      "Ġunfastened": 8729,
      "ĠOswell": 8730,
      "Ġmoleskin": 8731,
      "Ġabsurd": 8732,
      "Ġamethyst": 8733,
      "Ġsniggered": 8734,
      "Ġcontemplate": 8735,
      "Ġsweetgrass": 8736,
      "Ġemblazoned": 8737,
      "\"-": 8738,
      "Am": 8739,
      "Ar": 8740,
      "Aerys": 8741,
      "Aggo": 8742,
      "Bar": 8743,
      "Bum": 8744,
      "Brandon": 8745,
      "Cut": 8746,
      "Close": 8747,
      "Des": 8748,
      "Done": 8749,
      "Dark": 8750,
      "Down": 8751,
      "Doreah": 8752,
      "Edmure": 8753,
      "First": 8754,
      "Fair": 8755,
      "Gre": 8756,
      "Has": 8757,
      "Honor": 8758,
      "Hung": 8759,
      "Horse": 8760,
      "Illyrio": 8761,
      "Kings": 8762,
      "Low": 8763,
      "Last": 8764,
      "Long": 8765,
      "Live": 8766,
      "Life": 8767,
      "Lyanna": 8768,
      "Mar": 8769,
      "Mind": 8770,
      "Ned": 8771,
      "Nonetheless": 8772,
      "OU": 8773,
      "Ou": 8774,
      "Out": 8775,
      "Osha": 8776,
      "Open": 8777,
      "Past": 8778,
      "Petyr": 8779,
      "Riders": 8780,
      "Sor": 8781,
      "Say": 8782,
      "Sister": 8783,
      "Snow": 8784,
      "Six": 8785,
      "Show": 8786,
      "Too": 8787,
      "Talk": 8788,
      "Truly": 8789,
      "Up": 8790,
      "Want": 8791,
      "Xho": 8792,
      "Yield": 8793,
      "Yoren": 8794,
      "aven": 8795,
      "aerys": 8796,
      "bu": 8797,
      "bit": 8798,
      "bastard": 8799,
      "bones": 8800,
      "bye": 8801,
      "brown": 8802,
      "che": 8803,
      "com": 8804,
      "cra": 8805,
      "cur": 8806,
      "cart": 8807,
      "count": 8808,
      "cution": 8809,
      "dges": 8810,
      "eha": 8811,
      "fle": 8812,
      "fingered": 8813,
      "gly": 8814,
      "hard": 8815,
      "hip": 8816,
      "hands": 8817,
      "hidden": 8818,
      "hanging": 8819,
      "ien": 8820,
      "ians": 8821,
      "iol": 8822,
      "iantly": 8823,
      "joys": 8824,
      "lad": 8825,
      "lass": 8826,
      "laid": 8827,
      "lions": 8828,
      "like": 8829,
      "lulating": 8830,
      "mong": 8831,
      "mother": 8832,
      "miling": 8833,
      "minded": 8834,
      "moths": 8835,
      "nut": 8836,
      "oon": 8837,
      "oget": 8838,
      "ogs": 8839,
      "ocks": 8840,
      "pri": 8841,
      "pite": 8842,
      "pul": 8843,
      "pied": 8844,
      "posed": 8845,
      "pipe": 8846,
      "rac": 8847,
      "rate": 8848,
      "roud": 8849,
      "rors": 8850,
      "rison": 8851,
      "she": 8852,
      "sest": 8853,
      "shing": 8854,
      "sue": 8855,
      "sized": 8856,
      "scarlet": 8857,
      "too": 8858,
      "tain": 8859,
      "ties": 8860,
      "two": 8861,
      "ual": 8862,
      "ussed": 8863,
      "ucent": 8864,
      "upid": 8865,
      "ulets": 8866,
      "vo": 8867,
      "whe": 8868,
      "walk": 8869,
      "warf": 8870,
      "yes": 8871,
      "yield": 8872,
      "yage": 8873,
      "ymp": 8874,
      "zy": 8875,
      "Ġ6": 8876,
      "Ġ`": 8877,
      "Ġidly": 8878,
      "ĠXho": 8879,
      "held": 8880,
      "hely": 8881,
      "Ġts": 8882,
      "Ġtid": 8883,
      "Ġtal": 8884,
      "Ġtann": 8885,
      "Ġtie": 8886,
      "Ġtink": 8887,
      "Ġtig": 8888,
      "Ġtaut": 8889,
      "Ġtended": 8890,
      "Ġtires": 8891,
      "Ġtiring": 8892,
      "Ġagh": 8893,
      "Ġack": 8894,
      "Ġaval": 8895,
      "Ġahorse": 8896,
      "Ġsom": 8897,
      "Ġsinc": 8898,
      "Ġsens": 8899,
      "Ġsimp": 8900,
      "Ġsession": 8901,
      "Ġsinking": 8902,
      "Ġsymp": 8903,
      "Ġwir": 8904,
      "Ġwee": 8905,
      "Ġwave": 8906,
      "Ġwink": 8907,
      "Ġwaves": 8908,
      "Ġwits": 8909,
      "Ġwares": 8910,
      "Ġwrest": 8911,
      "Ġwiping": 8912,
      "inth": 8913,
      "Ġhart": 8914,
      "Ġharp": 8915,
      "Ġhinted": 8916,
      "edged": 8917,
      "ercy": 8918,
      "erik": 8919,
      "ndor": 8920,
      "ndent": 8921,
      "ouching": 8922,
      "oult": 8923,
      "ourage": 8924,
      "ouges": 8925,
      "Ġbis": 8926,
      "Ġbould": 8927,
      "Ġbill": 8928,
      "Ġbale": 8929,
      "reated": 8930,
      "resh": 8931,
      "Ġfing": 8932,
      "Ġfow": 8933,
      "Ġfart": 8934,
      "Ġfatter": 8935,
      "Ġfring": 8936,
      "Ġfighter": 8937,
      "Ġhen": 8938,
      "Ġheated": 8939,
      "Ġhefted": 8940,
      "Ġmor": 8941,
      "Ġmat": 8942,
      "Ġmas": 8943,
      "Ġmir": 8944,
      "Ġmam": 8945,
      "Ġmate": 8946,
      "Ġmace": 8947,
      "Ġmorn": 8948,
      "Ġmum": 8949,
      "Ġmoose": 8950,
      "Ġmorse": 8951,
      "orious": 8952,
      "orror": 8953,
      "Ġcal": 8954,
      "Ġcore": 8955,
      "Ġcav": 8956,
      "Ġcred": 8957,
      "Ġcawed": 8958,
      "aters": 8959,
      "attle": 8960,
      "ators": 8961,
      "atrek": 8962,
      "eness": 8963,
      "Ġtoast": 8964,
      "Ġtops": 8965,
      "Ġtoyed": 8966,
      "ara": 8967,
      "arn": 8968,
      "arice": 8969,
      "arily": 8970,
      "Ġ\"\"": 8971,
      "ono": 8972,
      "onse": 8973,
      "Ġlu": 8974,
      "Ġlain": 8975,
      "Ġlace": 8976,
      "Ġlather": 8977,
      "Ġlame": 8978,
      "Ġlung": 8979,
      "Ġlanding": 8980,
      "Ġlank": 8981,
      "Ġlash": 8982,
      "Ġlacked": 8983,
      "Ġluck": 8984,
      "Ġlashing": 8985,
      "Ġlapping": 8986,
      "Ġlucky": 8987,
      "Ġlumbered": 8988,
      "itive": 8989,
      "itions": 8990,
      "itality": 8991,
      "Ġdome": 8992,
      "Ġdined": 8993,
      "Ġdank": 8994,
      "Ġdipped": 8995,
      "Ġduck": 8996,
      "Ġdrows": 8997,
      "Ġdotted": 8998,
      "Ġdapp": 8999,
      "Ġdumped": 9000,
      "Ġdeemed": 9001,
      "Ġdazed": 9002,
      "asher": 9003,
      "asion": 9004,
      "asleep": 9005,
      "Ġthief": 9006,
      "Ġthimble": 9007,
      "Ġnie": 9008,
      "Ġnaught": 9009,
      "Ġnimble": 9010,
      "Ġnasty": 9011,
      "Ġnonsense": 9012,
      "roke": 9013,
      "roach": 9014,
      "rots": 9015,
      "Ġginger": 9016,
      "Ġgasping": 9017,
      "Ġgardens": 9018,
      "Ġgouges": 9019,
      "ĠTe": 9020,
      "ĠTr": 9021,
      "ĠTre": 9022,
      "ĠTruly": 9023,
      "Ġpor": 9024,
      "Ġpat": 9025,
      "Ġpus": 9026,
      "Ġpine": 9027,
      "Ġpron": 9028,
      "Ġpits": 9029,
      "Ġpump": 9030,
      "Ġpanting": 9031,
      "Ġprud": 9032,
      "Ġpoult": 9033,
      "gho": 9034,
      "ghar": 9035,
      "iments": 9036,
      "Ġinqui": 9037,
      "Ġinform": 9038,
      "Ġinformed": 9039,
      "Ġinlaid": 9040,
      "ĠSad": 9041,
      "Ġbehead": 9042,
      "Ġbeaded": 9043,
      "Ġbeads": 9044,
      "Ġbeheld": 9045,
      "otter": 9046,
      "lect": 9047,
      "lected": 9048,
      "Ġherded": 9049,
      "Ġstam": 9050,
      "Ġstale": 9051,
      "Ġstilts": 9052,
      "ĠHake": 9053,
      "ĠHoras": 9054,
      "ĠHorror": 9055,
      "acable": 9056,
      "Ġonward": 9057,
      "Ġast": 9058,
      "Ġeart": 9059,
      "Ġeats": 9060,
      "Ġeels": 9061,
      "Ġetched": 9062,
      "Ġkeen": 9063,
      "rice": 9064,
      "oop": 9065,
      "ooked": 9066,
      "oosing": 9067,
      "stre": 9068,
      "strils": 9069,
      "Ġhay": 9070,
      "Ġhaft": 9071,
      "Ġhaunt": 9072,
      "Ġhaggling": 9073,
      "ird": 9074,
      "iration": 9075,
      "herds": 9076,
      "ithing": 9077,
      "seers": 9078,
      "etime": 9079,
      "utes": 9080,
      "utation": 9081,
      "vers": 9082,
      "Ġululating": 9083,
      "ĠLess": 9084,
      "ĠLoth": 9085,
      "ral": 9086,
      "raw": 9087,
      "Ġfork": 9088,
      "Ġformer": 9089,
      "Ġsheared": 9090,
      "Ġsheets": 9091,
      "aya": 9092,
      "ayle": 9093,
      "Ġwhit": 9094,
      "Ġwhips": 9095,
      "Ġshack": 9096,
      "Ġshied": 9097,
      "Ġshred": 9098,
      "Ġshatter": 9099,
      "Ġshop": 9100,
      "Ġshower": 9101,
      "Ġshores": 9102,
      "Ġshattering": 9103,
      "Ġshaken": 9104,
      "Ġshroud": 9105,
      "allic": 9106,
      "illing": 9107,
      "Ġrever": 9108,
      "Ġreck": 9109,
      "Ġrecl": 9110,
      "Ġrelease": 9111,
      "Ġreeds": 9112,
      "Ġreigned": 9113,
      "Ġreleased": 9114,
      "ĠHead": 9115,
      "ĠHeavy": 9116,
      "urried": 9117,
      "ĠBite": 9118,
      "ĠBend": 9119,
      "ĠBoys": 9120,
      "ĠBells": 9121,
      "ĠJen": 9122,
      "ĠJal": 9123,
      "amily": 9124,
      "entangled": 9125,
      "aker": 9126,
      "ĠWed": 9127,
      "ĠWarm": 9128,
      "ĠWorse": 9129,
      "ĠWardens": 9130,
      "aling": 9131,
      "ĠRain": 9132,
      "ĠRide": 9133,
      "ĠRha": 9134,
      "ĠRhagg": 9135,
      "ĠRides": 9136,
      "ĠReg": 9137,
      "ilk": 9138,
      "iless": 9139,
      "ilities": 9140,
      "Ġrules": 9141,
      "Ġrasher": 9142,
      "ĠMe": 9143,
      "ĠMet": 9144,
      "ĠMight": 9145,
      "ĠMuch": 9146,
      "ellion": 9147,
      "ifed": 9148,
      "ifty": 9149,
      "andstars": 9150,
      "Ġmemb": 9151,
      "Ġblown": 9152,
      "Ġblister": 9153,
      "Ġblamed": 9154,
      "Ġbluff": 9155,
      "Ġissue": 9156,
[...]
